{
  "version": "1.0",
  "truncation": null,
  "padding": null,
  "added_tokens": [
    {
      "id": 0,
      "content": "[UNK]",
      "single_word": false,
      "lstrip": false,
      "rstrip": false,
      "normalized": false,
      "special": true
    },
    {
      "id": 1,
      "content": "[PAD]",
      "single_word": false,
      "lstrip": false,
      "rstrip": false,
      "normalized": false,
      "special": true
    },
    {
      "id": 2,
      "content": "[SOS]",
      "single_word": false,
      "lstrip": false,
      "rstrip": false,
      "normalized": false,
      "special": true
    },
    {
      "id": 3,
      "content": "[EOS]",
      "single_word": false,
      "lstrip": false,
      "rstrip": false,
      "normalized": false,
      "special": true
    },
    {
      "id": 4,
      "content": "[MASK]",
      "single_word": false,
      "lstrip": false,
      "rstrip": false,
      "normalized": false,
      "special": true
    }
  ],
  "normalizer": null,
  "pre_tokenizer": {
    "type": "Whitespace"
  },
  "post_processor": null,
  "decoder": null,
  "model": {
    "type": "BPE",
    "dropout": null,
    "unk_token": "[UNK]",
    "continuing_subword_prefix": null,
    "end_of_word_suffix": null,
    "fuse_unk": false,
    "byte_fallback": false,
    "ignore_merges": false,
    "vocab": {
      "[UNK]": 0,
      "[PAD]": 1,
      "[SOS]": 2,
      "[EOS]": 3,
      "[MASK]": 4,
      "!": 5,
      "%": 6,
      "'": 7,
      "(": 8,
      ")": 9,
      "+": 10,
      ",": 11,
      "-": 12,
      ".": 13,
      "/": 14,
      "0": 15,
      "1": 16,
      "2": 17,
      "3": 18,
      "4": 19,
      "5": 20,
      "6": 21,
      "7": 22,
      "8": 23,
      "9": 24,
      ":": 25,
      ";": 26,
      "=": 27,
      "?": 28,
      "A": 29,
      "B": 30,
      "C": 31,
      "D": 32,
      "E": 33,
      "F": 34,
      "G": 35,
      "H": 36,
      "I": 37,
      "J": 38,
      "K": 39,
      "L": 40,
      "M": 41,
      "N": 42,
      "O": 43,
      "P": 44,
      "Q": 45,
      "R": 46,
      "S": 47,
      "T": 48,
      "U": 49,
      "V": 50,
      "W": 51,
      "X": 52,
      "Y": 53,
      "Z": 54,
      "[": 55,
      "]": 56,
      "^": 57,
      "a": 58,
      "b": 59,
      "c": 60,
      "d": 61,
      "e": 62,
      "f": 63,
      "g": 64,
      "h": 65,
      "i": 66,
      "j": 67,
      "k": 68,
      "l": 69,
      "m": 70,
      "n": 71,
      "o": 72,
      "p": 73,
      "q": 74,
      "r": 75,
      "s": 76,
      "t": 77,
      "u": 78,
      "v": 79,
      "w": 80,
      "x": 81,
      "y": 82,
      "z": 83,
      "¡": 84,
      "¿": 85,
      "×": 86,
      "à": 87,
      "æ": 88,
      "é": 89,
      "ê": 90,
      "î": 91,
      "ö": 92,
      "Δ": 93,
      "ँ": 94,
      "क": 95,
      "त": 96,
      "द": 97,
      "म": 98,
      "र": 99,
      "स": 100,
      "ह": 101,
      "ा": 102,
      "ू": 103,
      "े": 104,
      "ै": 105,
      "—": 106,
      "⁺": 107,
      "⁻": 108,
      "in": 109,
      "an": 110,
      "ti": 111,
      "on": 112,
      "re": 113,
      "th": 114,
      "er": 115,
      "en": 116,
      "es": 117,
      "ing": 118,
      "or": 119,
      "al": 120,
      "and": 121,
      "at": 122,
      "ro": 123,
      "the": 124,
      "st": 125,
      "tion": 126,
      "el": 127,
      "ou": 128,
      "to": 129,
      "ic": 130,
      "le": 131,
      "ar": 132,
      "is": 133,
      "as": 134,
      "of": 135,
      "ac": 136,
      "it": 137,
      "ec": 138,
      "ation": 139,
      "pro": 140,
      "om": 141,
      "ed": 142,
      "ent": 143,
      "ol": 144,
      "li": 145,
      "si": 146,
      "you": 147,
      "de": 148,
      "ch": 149,
      "su": 150,
      "ow": 151,
      "ve": 152,
      "for": 153,
      "ce": 154,
      "can": 155,
      "ers": 156,
      "em": 157,
      "vi": 158,
      "tr": 159,
      "pl": 160,
      "Wh": 161,
      "un": 162,
      "et": 163,
      "res": 164,
      "ain": 165,
      "con": 166,
      "he": 167,
      "ab": 168,
      "ay": 169,
      "ap": 170,
      "ment": 171,
      "di": 172,
      "are": 173,
      "ag": 174,
      "us": 175,
      "ri": 176,
      "ces": 177,
      "op": 178,
      "ith": 179,
      "ity": 180,
      "com": 181,
      "ul": 182,
      "ex": 183,
      "ur": 184,
      "il": 185,
      "ut": 186,
      "mo": 187,
      "What": 188,
      "with": 189,
      "ate": 190,
      "me": 191,
      "tic": 192,
      "uc": 193,
      "og": 194,
      "am": 195,
      "nt": 196,
      "ad": 197,
      "sp": 198,
      "How": 199,
      "im": 200,
      "qu": 201,
      "ts": 202,
      "ver": 203,
      "ir": 204,
      "ter": 205,
      "ome": 206,
      "gen": 207,
      "os": 208,
      "ical": 209,
      "elli": 210,
      "ot": 211,
      "be": 212,
      "gh": 213,
      "tive": 214,
      "ne": 215,
      "oc": 216,
      "iz": 217,
      "ations": 218,
      "ell": 219,
      "tu": 220,
      "te": 221,
      "do": 222,
      "ding": 223,
      "fe": 224,
      "per": 225,
      "wh": 226,
      "ly": 227,
      "by": 228,
      "olog": 229,
      "The": 230,
      "ance": 231,
      "such": 232,
      "Int": 233,
      "ds": 234,
      "ke": 235,
      "ang": 236,
      "Ai": 237,
      "elliAi": 238,
      "IntelliAi": 239,
      "str": 240,
      "tiv": 241,
      "form": 242,
      "tions": 243,
      "hel": 244,
      "ech": 245,
      "wor": 246,
      "sist": 247,
      "cl": 248,
      "ess": 249,
      "provi": 250,
      "help": 251,
      "ties": 252,
      "your": 253,
      "cre": 254,
      "cess": 255,
      "ies": 256,
      "man": 257,
      "id": 258,
      "king": 259,
      "ting": 260,
      "se": 261,
      "dis": 262,
      "ating": 263,
      "als": 264,
      "ind": 265,
      "comm": 266,
      "ach": 267,
      "that": 268,
      "ine": 269,
      "assist": 270,
      "echn": 271,
      "work": 272,
      "vol": 273,
      "our": 274,
      "enti": 275,
      "we": 276,
      "ons": 277,
      "sy": 278,
      "fic": 279,
      "ous": 280,
      "red": 281,
      "tran": 282,
      "ef": 283,
      "vel": 284,
      "but": 285,
      "able": 286,
      "ial": 287,
      "process": 288,
      "od": 289,
      "comp": 290,
      "techn": 291,
      "rom": 292,
      "erg": 293,
      "ves": 294,
      "ning": 295,
      "ha": 296,
      "ort": 297,
      "provide": 298,
      "end": 299,
      "all": 300,
      "Can": 301,
      "ust": 302,
      "vir": 303,
      "ks": 304,
      "ra": 305,
      "day": 306,
      "over": 307,
      "some": 308,
      "lear": 309,
      "not": 310,
      "ther": 311,
      "energ": 312,
      "from": 313,
      "br": 314,
      "energy": 315,
      "ect": 316,
      "its": 317,
      "clu": 318,
      "ence": 319,
      "ph": 320,
      "inclu": 321,
      "und": 322,
      "velop": 323,
      "ge": 324,
      "out": 325,
      "cell": 326,
      "ci": 327,
      "stem": 328,
      "prod": 329,
      "ma": 330,
      "sol": 331,
      "develop": 332,
      "like": 333,
      "hi": 334,
      "ving": 335,
      "team": 336,
      "gene": 337,
      "ya": 338,
      "riya": 339,
      "ost": 340,
      "here": 341,
      "tain": 342,
      "sion": 343,
      "ble": 344,
      "ant": 345,
      "bl": 346,
      "age": 347,
      "sh": 348,
      "into": 349,
      "ely": 350,
      "expl": 351,
      "port": 352,
      "rou": 353,
      "ture": 354,
      "time": 355,
      "invol": 356,
      "act": 357,
      "ential": 358,
      "cy": 359,
      "eng": 360,
      "trans": 361,
      "inter": 362,
      "today": 363,
      "produc": 364,
      "go": 365,
      "have": 366,
      "ms": 367,
      "ob": 368,
      "sor": 369,
      "their": 370,
      "ure": 371,
      "ement": 372,
      "rough": 373,
      "ari": 374,
      "ys": 375,
      "ase": 376,
      "tivity": 377,
      "ore": 378,
      "resp": 379,
      "med": 380,
      "ill": 381,
      "ize": 382,
      "mem": 383,
      "pr": 384,
      "disc": 385,
      "ques": 386,
      "commun": 387,
      "gan": 388,
      "pre": 389,
      "vers": 390,
      "cont": 391,
      "exper": 392,
      "pe": 393,
      "ser": 394,
      "ps": 395,
      "organ": 396,
      "pa": 397,
      "ress": 398,
      "ments": 399,
      "cannot": 400,
      "fec": 401,
      "ater": 402,
      "viron": 403,
      "through": 404,
      "acti": 405,
      "gn": 406,
      "learning": 407,
      "environ": 408,
      "ght": 409,
      "new": 410,
      "main": 411,
      "um": 412,
      "bet": 413,
      "own": 414,
      "struc": 415,
      "ld": 416,
      "bo": 417,
      "actions": 418,
      "NA": 419,
      "fl": 420,
      "system": 421,
      "ory": 422,
      "formation": 423,
      "col": 424,
      "ud": 425,
      "ry": 426,
      "int": 427,
      "ated": 428,
      "tri": 429,
      "ile": 430,
      "sel": 431,
      "reg": 432,
      "ace": 433,
      "involves": 434,
      "han": 435,
      "spec": 436,
      "qui": 437,
      "communic": 438,
      "rel": 439,
      "ility": 440,
      "ology": 441,
      "genetic": 442,
      "cul": 443,
      "ution": 444,
      "chang": 445,
      "ty": 446,
      "way": 447,
      "ever": 448,
      "pos": 449,
      "fer": 450,
      "how": 451,
      "des": 452,
      "using": 453,
      "ors": 454,
      "ass": 455,
      "bi": 456,
      "ack": 457,
      "pers": 458,
      "bers": 459,
      "ren": 460,
      "alth": 461,
      "effec": 462,
      "Some": 463,
      "environment": 464,
      "plan": 465,
      "dif": 466,
      "min": 467,
      "sk": 468,
      "vari": 469,
      "au": 470,
      "par": 471,
      "health": 472,
      "ful": 473,
      "up": 474,
      "role": 475,
      "sts": 476,
      "plic": 477,
      "gr": 478,
      "ata": 479,
      "ich": 480,
      "ey": 481,
      "ness": 482,
      "chem": 483,
      "unc": 484,
      "impro": 485,
      "recomm": 486,
      "recommend": 487,
      "aging": 488,
      "ood": 489,
      "ents": 490,
      "under": 491,
      "AI": 492,
      "ative": 493,
      "ources": 494,
      "sup": 495,
      "po": 496,
      "more": 497,
      "experi": 498,
      "data": 499,
      "thers": 500,
      "Hey": 501,
      "ta": 502,
      "ion": 503,
      "my": 504,
      "which": 505,
      "map": 506,
      "development": 507,
      "anal": 508,
      "no": 509,
      "iques": 510,
      "Let": 511,
      "other": 512,
      "elec": 513,
      "oun": 514,
      "uni": 515,
      "techniques": 516,
      "gro": 517,
      "real": 518,
      "brain": 519,
      "chemical": 520,
      "ary": 521,
      "self": 522,
      "electr": 523,
      "cells": 524,
      "ould": 525,
      "ural": 526,
      "bas": 527,
      "anger": 528,
      "pres": 529,
      "pot": 530,
      "if": 531,
      "skill": 532,
      "It": 533,
      "star": 534,
      "ized": 535,
      "bu": 536,
      "loc": 537,
      "rec": 538,
      "dec": 539,
      "fa": 540,
      "cep": 541,
      "potential": 542,
      "syn": 543,
      "tim": 544,
      "uman": 545,
      "ates": 546,
      "May": 547,
      "sur": 548,
      "diffe": 549,
      "members": 550,
      "bon": 551,
      "life": 552,
      "tual": 553,
      "processes": 554,
      "sorry": 555,
      "bre": 556,
      "tas": 557,
      "stud": 558,
      "agement": 559,
      "also": 560,
      "gu": 561,
      "human": 562,
      "ability": 563,
      "include": 564,
      "serv": 565,
      "well": 566,
      "does": 567,
      "ohan": 568,
      "ite": 569,
      "les": 570,
      "ople": 571,
      "people": 572,
      "fi": 573,
      "tra": 574,
      "plications": 575,
      "fin": 576,
      "requi": 577,
      "ings": 578,
      "Who": 579,
      "Banger": 580,
      "Pad": 581,
      "Priya": 582,
      "Rohan": 583,
      "Th": 584,
      "ear": 585,
      "mapriya": 586,
      "Mayur": 587,
      "Bangera": 588,
      "Padmapriya": 589,
      "dri": 590,
      "regul": 591,
      "information": 592,
      "thin": 593,
      "care": 594,
      "ering": 595,
      "various": 596,
      "co": 597,
      "lead": 598,
      "imp": 599,
      "set": 600,
      "intelli": 601,
      "vis": 602,
      "onal": 603,
      "ling": 604,
      "skills": 605,
      "analy": 606,
      "ound": 607,
      "brea": 608,
      "ori": 609,
      "tional": 610,
      "ological": 611,
      "ures": 612,
      "including": 613,
      "est": 614,
      "stand": 615,
      "neu": 616,
      "ween": 617,
      "technology": 618,
      "between": 619,
      "nov": 620,
      "),": 621,
      "about": 622,
      "cur": 623,
      "pri": 624,
      "vities": 625,
      "activities": 626,
      "DNA": 627,
      "play": 628,
      "meth": 629,
      "ficial": 630,
      "discus": 631,
      "improve": 632,
      "cri": 633,
      "one": 634,
      "ateg": 635,
      "du": 636,
      "tasks": 637,
      "back": 638,
      "bec": 639,
      "chain": 640,
      "gence": 641,
      "buil": 642,
      "study": 643,
      "mar": 644,
      "thing": 645,
      "stress": 646,
      "sible": 647,
      "imm": 648,
      "comput": 649,
      "func": 650,
      "ods": 651,
      "pow": 652,
      "ism": 653,
      "strateg": 654,
      "Ear": 655,
      "ie": 656,
      "ific": 657,
      "where": 658,
      "use": 659,
      "phys": 660,
      "intelligence": 661,
      "Earth": 662,
      "del": 663,
      "respon": 664,
      "Others": 665,
      "ide": 666,
      "pes": 667,
      "ong": 668,
      "light": 669,
      "ast": 670,
      "kn": 671,
      "action": 672,
      "personal": 673,
      "fy": 674,
      "ven": 675,
      "innov": 676,
      "rent": 677,
      "management": 678,
      "transp": 679,
      "hy": 680,
      "has": 681,
      "water": 682,
      "ertain": 683,
      "ics": 684,
      "understand": 685,
      "based": 686,
      "ep": 687,
      "atom": 688,
      "ard": 689,
      "uring": 690,
      "izing": 691,
      "soc": 692,
      "led": 693,
      "lab": 694,
      "ns": 695,
      "applications": 696,
      "lities": 697,
      "being": 698,
      "explore": 699,
      "ax": 700,
      "mind": 701,
      "sec": 702,
      "tificial": 703,
      "thes": 704,
      "ghts": 705,
      "who": 706,
      "enh": 707,
      "resources": 708,
      "contri": 709,
      "mon": 710,
      "onom": 711,
      "ros": 712,
      "prof": 713,
      "divers": 714,
      "used": 715,
      "discuss": 716,
      "af": 717,
      "ences": 718,
      "labor": 719,
      "met": 720,
      "ativity": 721,
      "inte": 722,
      "tics": 723,
      "volution": 724,
      "ign": 725,
      "atter": 726,
      "tively": 727,
      "ects": 728,
      "abi": 729,
      "They": 730,
      "grow": 731,
      "cle": 732,
      "achie": 733,
      "maintain": 734,
      "strategies": 735,
      "just": 736,
      "ze": 737,
      "dist": 738,
      "providing": 739,
      "structure": 740,
      "posi": 741,
      "oy": 742,
      "While": 743,
      "Their": 744,
      "ose": 745,
      "communication": 746,
      "ions": 747,
      "requires": 748,
      "contribut": 749,
      "cap": 750,
      "nat": 751,
      "enc": 752,
      "sign": 753,
      "create": 754,
      "identi": 755,
      "physical": 756,
      "cent": 757,
      "ple": 758,
      "apolog": 759,
      "abilities": 760,
      "apologize": 761,
      "hand": 762,
      "tre": 763,
      "val": 764,
      "lim": 765,
      "cal": 766,
      "fact": 767,
      "different": 768,
      "car": 769,
      "gener": 770,
      "ord": 771,
      "they": 772,
      "dig": 773,
      "ox": 774,
      "pol": 775,
      "lex": 776,
      "itation": 777,
      "opport": 778,
      "think": 779,
      "methods": 780,
      "insi": 781,
      "ital": 782,
      "ages": 783,
      "foc": 784,
      "what": 785,
      "offer": 786,
      "sub": 787,
      "ogn": 788,
      "net": 789,
      "sen": 790,
      "virtual": 791,
      "environmental": 792,
      "aw": 793,
      "divi": 794,
      "changes": 795,
      "support": 796,
      "proach": 797,
      "edback": 798,
      "adv": 799,
      "while": 800,
      "making": 801,
      "ten": 802,
      "reactions": 803,
      "ession": 804,
      "promo": 805,
      "creating": 806,
      "goals": 807,
      "profession": 808,
      "ner": 809,
      "num": 810,
      "alg": 811,
      "tical": 812,
      "feedback": 813,
      "guid": 814,
      "sure": 815,
      "exp": 816,
      "cept": 817,
      "insights": 818,
      "ices": 819,
      "practi": 820,
      "ris": 821,
      "ele": 822,
      "systems": 823,
      "effective": 824,
      "growth": 825,
      "stor": 826,
      "sul": 827,
      "experiences": 828,
      "isms": 829,
      "chall": 830,
      "ines": 831,
      "ene": 832,
      "iting": 833,
      "mole": 834,
      "angu": 835,
      "see": 836,
      "unities": 837,
      "synthes": 838,
      "opportunities": 839,
      "fut": 840,
      "gal": 841,
      "langu": 842,
      "orith": 843,
      "proble": 844,
      "osy": 845,
      "essential": 846,
      "collabor": 847,
      "algorith": 848,
      "gl": 849,
      "gra": 850,
      "than": 851,
      "ount": 852,
      "path": 853,
      "become": 854,
      "ases": 855,
      "reduc": 856,
      "fost": 857,
      "gre": 858,
      "ual": 859,
      "zing": 860,
      "tum": 861,
      "osystem": 862,
      "uce": 863,
      "antum": 864,
      "feel": 865,
      "change": 866,
      "mor": 867,
      "nuc": 868,
      "enhance": 869,
      "down": 870,
      "vor": 871,
      "ances": 872,
      "ular": 873,
      "beha": 874,
      "solut": 875,
      "challeng": 876,
      "behavi": 877,
      "hol": 878,
      "stay": 879,
      "artificial": 880,
      "creativity": 881,
      "relations": 882,
      "types": 883,
      "future": 884,
      "cust": 885,
      "ens": 886,
      "natural": 887,
      "dividu": 888,
      "custom": 889,
      "sm": 890,
      "individu": 891,
      "ice": 892,
      "social": 893,
      "diversity": 894,
      "guidance": 895,
      "ber": 896,
      "cr": 897,
      "sili": 898,
      "sive": 899,
      "aining": 900,
      "mental": 901,
      "move": 902,
      "gg": 903,
      "ists": 904,
      "ins": 905,
      "them": 906,
      "ish": 907,
      "active": 908,
      "sions": 909,
      "ody": 910,
      "favor": 911,
      "algorithms": 912,
      "body": 913,
      "ia": 914,
      "ll": 915,
      "pred": 916,
      "sci": 917,
      "ved": 918,
      "achine": 919,
      "assistance": 920,
      "going": 921,
      "setting": 922,
      "relationshi": 923,
      "char": 924,
      "professional": 925,
      "Good": 926,
      "mic": 927,
      "resili": 928,
      "ecosystem": 929,
      "suc": 930,
      "sust": 931,
      "fici": 932,
      "bloc": 933,
      "innovation": 934,
      "cop": 935,
      "digital": 936,
      "language": 937,
      "mi": 938,
      "ety": 939,
      "need": 940,
      "were": 941,
      "transm": 942,
      "favorite": 943,
      "hind": 944,
      "rele": 945,
      "rol": 946,
      "occur": 947,
      "auto": 948,
      "oriti": 949,
      "proper": 950,
      "space": 951,
      "behind": 952,
      "design": 953,
      "decis": 954,
      "mark": 955,
      "maintaining": 956,
      "positive": 957,
      "predic": 958,
      "sustain": 959,
      "get": 960,
      "ru": 961,
      "super": 962,
      "complex": 963,
      "thical": 964,
      "acc": 965,
      "bus": 966,
      "cis": 967,
      "fore": 968,
      "mul": 969,
      "tw": 970,
      "there": 971,
      "ples": 972,
      "adap": 973,
      "bal": 974,
      "could": 975,
      "der": 976,
      "may": 977,
      "war": 978,
      "enab": 979,
      "optim": 980,
      "effici": 981,
      "reality": 982,
      "leading": 983,
      "ca": 984,
      "jects": 985,
      "ything": 986,
      "infl": 987,
      "renew": 988,
      "approach": 989,
      "users": 990,
      "behavior": 991,
      "Is": 992,
      "fac": 993,
      "spir": 994,
      "ello": 995,
      "make": 996,
      "shap": 997,
      "function": 998,
      "achieve": 999,
      "kchain": 1000,
      "pic": 1001,
      "Hello": 1002,
      "clim": 1003,
      "ev": 1004,
      "fra": 1005,
      "gate": 1006,
      "mater": 1007,
      "ross": 1008,
      "synthesis": 1009,
      "anc": 1010,
      "ection": 1011,
      "une": 1012,
      "stars": 1013,
      "identify": 1014,
      "resilience": 1015,
      "pur": 1016,
      "However": 1017,
      "explor": 1018,
      "productivity": 1019,
      "specific": 1020,
      "electrons": 1021,
      "morning": 1022,
      "solutely": 1023,
      "Ab": 1024,
      "law": 1025,
      "ric": 1026,
      "tect": 1027,
      "owing": 1028,
      "confl": 1029,
      "ization": 1030,
      "dise": 1031,
      "molecul": 1032,
      "problem": 1033,
      "Absolutely": 1034,
      "conflic": 1035,
      "patter": 1036,
      "iness": 1037,
      "inves": 1038,
      "resul": 1039,
      "ste": 1040,
      "urity": 1041,
      "contin": 1042,
      "ways": 1043,
      "Hi": 1044,
      "por": 1045,
      "pec": 1046,
      "then": 1047,
      "imag": 1048,
      "been": 1049,
      "forms": 1050,
      "echan": 1051,
      "possible": 1052,
      "impact": 1053,
      "ogni": 1054,
      "relationships": 1055,
      "success": 1056,
      "RNA": 1057,
      "ject": 1058,
      "mechan": 1059,
      "incre": 1060,
      "ref": 1061,
      "explain": 1062,
      "neuro": 1063,
      "market": 1064,
      "renewable": 1065,
      "cer": 1066,
      "atures": 1067,
      "theory": 1068,
      "Whe": 1069,
      "model": 1070,
      "technolog": 1071,
      "colle": 1072,
      "planet": 1073,
      "prioriti": 1074,
      "building": 1075,
      "patterns": 1076,
      "Do": 1077,
      "so": 1078,
      "read": 1079,
      "aries": 1080,
      "quantum": 1081,
      "healthcare": 1082,
      "technologies": 1083,
      "VR": 1084,
      "har": 1085,
      "prin": 1086,
      "control": 1087,
      "transpare": 1088,
      "In": 1089,
      "utri": 1090,
      "tips": 1091,
      "rest": 1092,
      "educ": 1093,
      "training": 1094,
      "tail": 1095,
      "know": 1096,
      "St": 1097,
      "sa": 1098,
      "sources": 1099,
      "ted": 1100,
      "ening": 1101,
      "concept": 1102,
      "partic": 1103,
      "handle": 1104,
      "influ": 1105,
      "dro": 1106,
      "fu": 1107,
      "gin": 1108,
      "lo": 1109,
      "ming": 1110,
      "mut": 1111,
      "na": 1112,
      "ses": 1113,
      "production": 1114,
      "transmit": 1115,
      "adapt": 1116,
      "den": 1117,
      "ym": 1118,
      "tis": 1119,
      "ouse": 1120,
      "prote": 1121,
      "omes": 1122,
      "teach": 1123,
      "learn": 1124,
      "interactions": 1125,
      "culture": 1126,
      "nucle": 1127,
      "evolution": 1128,
      "reaction": 1129,
      "ries": 1130,
      "ologists": 1131,
      "tives": 1132,
      "bonds": 1133,
      "carbon": 1134,
      "reducing": 1135,
      "challenges": 1136,
      "sit": 1137,
      "ues": 1138,
      "wind": 1139,
      "etings": 1140,
      "perform": 1141,
      "when": 1142,
      "works": 1143,
      "univers": 1144,
      "autom": 1145,
      "climate": 1146,
      "nutri": 1147,
      "empl": 1148,
      "conn": 1149,
      "manage": 1150,
      "hip": 1151,
      "pair": 1152,
      "understanding": 1153,
      "sustainable": 1154,
      "education": 1155,
      "find": 1156,
      "mag": 1157,
      "inding": 1158,
      "enhan": 1159,
      "acy": 1160,
      "deter": 1161,
      "overn": 1162,
      "centr": 1163,
      "line": 1164,
      "asking": 1165,
      "neur": 1166,
      "radi": 1167,
      "face": 1168,
      "ination": 1169,
      "ency": 1170,
      "actic": 1171,
      "ext": 1172,
      "boo": 1173,
      "species": 1174,
      "build": 1175,
      "factors": 1176,
      "properties": 1177,
      "each": 1178,
      "mis": 1179,
      "mus": 1180,
      "wa": 1181,
      "uses": 1182,
      "genes": 1183,
      "perspec": 1184,
      "analyze": 1185,
      "integr": 1186,
      "practice": 1187,
      "collaboration": 1188,
      "balance": 1189,
      "Certain": 1190,
      "Gre": 1191,
      "You": 1192,
      "fect": 1193,
      "ero": 1194,
      "els": 1195,
      "qual": 1196,
      "key": 1197,
      "world": 1198,
      "solving": 1199,
      "communicate": 1200,
      "fulness": 1201,
      "seeking": 1202,
      "two": 1203,
      "ak": 1204,
      "bound": 1205,
      "machine": 1206,
      "across": 1207,
      "construc": 1208,
      "within": 1209,
      "solu": 1210,
      "bio": 1211,
      "grav": 1212,
      "business": 1213,
      "Where": 1214,
      "Certainly": 1215,
      "Oh": 1216,
      "ants": 1217,
      "ese": 1218,
      "ands": 1219,
      "motiv": 1220,
      "meditation": 1221,
      "effectively": 1222,
      "minds": 1223,
      "vision": 1224,
      "known": 1225,
      "acticing": 1226,
      "ply": 1227,
      "ulation": 1228,
      "imagine": 1229,
      "Greetings": 1230,
      "ded": 1231,
      "urn": 1232,
      "without": 1233,
      "geological": 1234,
      "pression": 1235,
      "small": 1236,
      "situ": 1237,
      "By": 1238,
      "hic": 1239,
      "ping": 1240,
      "roc": 1241,
      "eles": 1242,
      "acts": 1243,
      "consist": 1244,
      "sphere": 1245,
      "take": 1246,
      "This": 1247,
      "individuals": 1248,
      "job": 1249,
      "others": 1250,
      "pop": 1251,
      "rap": 1252,
      "tal": 1253,
      "ily": 1254,
      "sequ": 1255,
      "pho": 1256,
      "cycle": 1257,
      "ysis": 1258,
      "services": 1259,
      "mindfulness": 1260,
      "sensor": 1261,
      "decision": 1262,
      ").": 1263,
      "gi": 1264,
      "mal": 1265,
      "mos": 1266,
      "ucial": 1267,
      "immune": 1268,
      "crucial": 1269,
      "solutions": 1270,
      "Mind": 1271,
      "fri": 1272,
      "ove": 1273,
      "pi": 1274,
      "titu": 1275,
      "alter": 1276,
      "sition": 1277,
      "exer": 1278,
      "plants": 1279,
      "power": 1280,
      "transport": 1281,
      "signific": 1282,
      "number": 1283,
      "customer": 1284,
      "molecules": 1285,
      "jour": 1286,
      "ane": 1287,
      "those": 1288,
      "itely": 1289,
      "ols": 1290,
      "sum": 1291,
      "sues": 1292,
      "trust": 1293,
      "ditional": 1294,
      "open": 1295,
      "blown": 1296,
      "relax": 1297,
      "differen": 1298,
      "computing": 1299,
      "contribute": 1300,
      "Ne": 1301,
      "bit": 1302,
      "bility": 1303,
      "activity": 1304,
      "medical": 1305,
      "synap": 1306,
      "These": 1307,
      "focus": 1308,
      "foster": 1309,
      "situations": 1310,
      "cu": 1311,
      "stages": 1312,
      "econom": 1313,
      "list": 1314,
      "defin": 1315,
      "spe": 1316,
      "features": 1317,
      "enabling": 1318,
      "universe": 1319,
      "ben": 1320,
      "don": 1321,
      "lay": 1322,
      "long": 1323,
      "prot": 1324,
      "formed": 1325,
      "produce": 1326,
      "blood": 1327,
      "media": 1328,
      "discove": 1329,
      "ressing": 1330,
      "fiel": 1331,
      "earch": 1332,
      "please": 1333,
      "promote": 1334,
      "pathy": 1335,
      "models": 1336,
      "employ": 1337,
      "discovered": 1338,
      "ered": 1339,
      "food": 1340,
      "lation": 1341,
      "ster": 1342,
      "plas": 1343,
      "disord": 1344,
      "should": 1345,
      "secre": 1346,
      "risk": 1347,
      "overnment": 1348,
      "exercis": 1349,
      "En": 1350,
      "low": 1351,
      "tren": 1352,
      "ones": 1353,
      "revolution": 1354,
      "dead": 1355,
      "resol": 1356,
      "concentr": 1357,
      "expression": 1358,
      "manu": 1359,
      "practicing": 1360,
      "ground": 1361,
      "start": 1362,
      "subst": 1363,
      "events": 1364,
      "during": 1365,
      "ist": 1366,
      "joy": 1367,
      "ption": 1368,
      "lement": 1369,
      "oming": 1370,
      "emo": 1371,
      "user": 1372,
      "irst": 1373,
      "high": 1374,
      "effects": 1375,
      "responsible": 1376,
      "purpos": 1377,
      "enhanc": 1378,
      "dy": 1379,
      "nam": 1380,
      "was": 1381,
      "thre": 1382,
      "enable": 1383,
      "ature": 1384,
      "let": 1385,
      "ars": 1386,
      "acter": 1387,
      "deep": 1388,
      "concer": 1389,
      "onses": 1390,
      "engaging": 1391,
      "products": 1392,
      "objects": 1393,
      "responses": 1394,
      "break": 1395,
      "encour": 1396,
      "efficiency": 1397,
      "picture": 1398,
      "AR": 1399,
      "hor": 1400,
      "atory": 1401,
      "tools": 1402,
      "exam": 1403,
      "add": 1404,
      "import": 1405,
      "processing": 1406,
      "minim": 1407,
      "driving": 1408,
      "mones": 1409,
      "galax": 1410,
      "exploration": 1411,
      "tise": 1412,
      "tigate": 1413,
      "liz": 1414,
      "simul": 1415,
      "sugg": 1416,
      "ury": 1417,
      "meas": 1418,
      "expertise": 1419,
      "supply": 1420,
      "response": 1421,
      "advance": 1422,
      "ecosystems": 1423,
      "benef": 1424,
      "ids": 1425,
      "zym": 1426,
      "ans": 1427,
      "repair": 1428,
      "elect": 1429,
      "legal": 1430,
      "project": 1431,
      "sil": 1432,
      "research": 1433,
      "comb": 1434,
      "overall": 1435,
      "cellular": 1436,
      "traits": 1437,
      "hold": 1438,
      "mechanisms": 1439,
      "zymes": 1440,
      "ft": 1441,
      "lost": 1442,
      "tem": 1443,
      "round": 1444,
      "propos": 1445,
      "force": 1446,
      "plac": 1447,
      "conver": 1448,
      "sych": 1449,
      "ements": 1450,
      "discover": 1451,
      "organisms": 1452,
      "better": 1453,
      "assess": 1454,
      "healthy": 1455,
      "valu": 1456,
      "elebr": 1457,
      "Hand": 1458,
      "duc": 1459,
      "pu": 1460,
      "rop": 1461,
      "dep": 1462,
      "ilit": 1463,
      "neural": 1464,
      "pati": 1465,
      "communicating": 1466,
      "servation": 1467,
      "trends": 1468,
      "Handling": 1469,
      "Col": 1470,
      "cogni": 1471,
      "hab": 1472,
      "ip": 1473,
      "mass": 1474,
      "rang": 1475,
      "vent": 1476,
      "story": 1477,
      "empathy": 1478,
      "app": 1479,
      "urb": 1480,
      "allowing": 1481,
      "gram": 1482,
      "driven": 1483,
      "plays": 1484,
      "personalized": 1485,
      "rug": 1486,
      "material": 1487,
      "conflicts": 1488,
      "consists": 1489,
      "concerns": 1490,
      "Ad": 1491,
      "ather": 1492,
      "cos": 1493,
      "cry": 1494,
      "drug": 1495,
      "ew": 1496,
      "tial": 1497,
      "tric": 1498,
      "plat": 1499,
      "feren": 1500,
      "atomic": 1501,
      "definitely": 1502,
      "Ar": 1503,
      "Ex": 1504,
      "Gene": 1505,
      "We": 1506,
      "ight": 1507,
      "ncy": 1508,
      "stim": 1509,
      "ond": 1510,
      "online": 1511,
      "asing": 1512,
      "ecting": 1513,
      "program": 1514,
      "unloc": 1515,
      "ource": 1516,
      "analyzing": 1517,
      "contributed": 1518,
      "charge": 1519,
      "navi": 1520,
      "titude": 1521,
      "listening": 1522,
      "av": 1523,
      "fr": 1524,
      "fol": 1525,
      "ities": 1526,
      "matter": 1527,
      "any": 1528,
      "art": 1529,
      "stronom": 1530,
      "managing": 1531,
      "indust": 1532,
      "everything": 1533,
      "regular": 1534,
      "hydro": 1535,
      "facturing": 1536,
      "promoting": 1537,
      "gluc": 1538,
      "blockchain": 1539,
      "laws": 1540,
      "transparency": 1541,
      "manufacturing": 1542,
      "proposed": 1543,
      "Im": 1544,
      "cast": 1545,
      "celebr": 1546,
      "ious": 1547,
      "less": 1548,
      "lines": 1549,
      "tele": 1550,
      "onic": 1551,
      "off": 1552,
      "acks": 1553,
      "heat": 1554,
      "solar": 1555,
      "memory": 1556,
      "special": 1557,
      "improving": 1558,
      "analytics": 1559,
      "breaking": 1560,
      "atoms": 1561,
      "capabilities": 1562,
      "automation": 1563,
      "books": 1564,
      "concentration": 1565,
      "ferences": 1566,
      "Ge": 1567,
      "TP": 1568,
      "fos": 1569,
      "hase": 1570,
      "sing": 1571,
      "this": 1572,
      "condi": 1573,
      "conservation": 1574,
      "creation": 1575,
      "engine": 1576,
      "context": 1577,
      "physically": 1578,
      "significant": 1579,
      "disorders": 1580,
      "ATP": 1581,
      "Gra": 1582,
      "bri": 1583,
      "cor": 1584,
      "fid": 1585,
      "side": 1586,
      "ared": 1587,
      "oper": 1588,
      "illegal": 1589,
      "preferences": 1590,
      "grap": 1591,
      "electric": 1592,
      "security": 1593,
      "interest": 1594,
      "oxy": 1595,
      "occurs": 1596,
      "facilit": 1597,
      "synaptic": 1598,
      "stronomers": 1599,
      "conditions": 1600,
      "Finding": 1601,
      "lar": 1602,
      "wr": 1603,
      "lec": 1604,
      "ark": 1605,
      "access": 1606,
      "ney": 1607,
      "good": 1608,
      "suppor": 1609,
      "analysis": 1610,
      "surface": 1611,
      "visual": 1612,
      "feeling": 1613,
      "scienti": 1614,
      "steps": 1615,
      "dynam": 1616,
      "An": 1617,
      "Bi": 1618,
      "RI": 1619,
      "cat": 1620,
      "gating": 1621,
      "psych": 1622,
      "erous": 1623,
      "rout": 1624,
      "sun": 1625,
      "vehic": 1626,
      "confid": 1627,
      "abol": 1628,
      "come": 1629,
      "clari": 1630,
      "echnology": 1631,
      "effor": 1632,
      "therap": 1633,
      "powers": 1634,
      "metabol": 1635,
      "treat": 1636,
      "offering": 1637,
      "numerous": 1638,
      "practices": 1639,
      "thanks": 1640,
      "science": 1641,
      "continu": 1642,
      "protein": 1643,
      "boundaries": 1644,
      "motivated": 1645,
      "sequence": 1646,
      "journey": 1647,
      "enhancing": 1648,
      "advancements": 1649,
      "benefits": 1650,
      "publ": 1651,
      "fossil": 1652,
      "First": 1653,
      "Government": 1654,
      "vous": 1655,
      "replic": 1656,
      "lege": 1657,
      "arch": 1658,
      "dem": 1659,
      "rib": 1660,
      "ticity": 1661,
      "osis": 1662,
      "reduce": 1663,
      "regions": 1664,
      "planning": 1665,
      "service": 1666,
      "thinking": 1667,
      "becoming": 1668,
      "powered": 1669,
      "ideas": 1670,
      "prioritize": 1671,
      "determin": 1672,
      "elescop": 1673,
      "purposes": 1674,
      "College": 1675,
      "glucose": 1676,
      "Grade": 1677,
      "ken": 1678,
      "pto": 1679,
      "pain": 1680,
      "aring": 1681,
      "view": 1682,
      "areas": 1683,
      "agric": 1684,
      "que": 1685,
      "begin": 1686,
      "tures": 1687,
      "membr": 1688,
      "miner": 1689,
      "ify": 1690,
      "immer": 1691,
      "innovative": 1692,
      "nervous": 1693,
      "disease": 1694,
      "planets": 1695,
      "princi": 1696,
      "substances": 1697,
      "Artificial": 1698,
      "agricul": 1699,
      "gment": 1700,
      "saf": 1701,
      "scal": 1702,
      "det": 1703,
      "ership": 1704,
      "consum": 1705,
      "aying": 1706,
      "respir": 1707,
      "content": 1708,
      "genetics": 1709,
      "signals": 1710,
      "fostering": 1711,
      "movement": 1712,
      "diseases": 1713,
      "quality": 1714,
      "galaxies": 1715,
      "Bloc": 1716,
      "Could": 1717,
      "clear": 1718,
      "home": 1719,
      "iety": 1720,
      "ters": 1721,
      "aly": 1722,
      "ats": 1723,
      "atmo": 1724,
      "actively": 1725,
      "detail": 1726,
      "chro": 1727,
      "ows": 1728,
      "mentation": 1729,
      "term": 1730,
      "present": 1731,
      "recor": 1732,
      "computer": 1733,
      "diverse": 1734,
      "oxide": 1735,
      "spirits": 1736,
      "nucleus": 1737,
      "friend": 1738,
      "relaxation": 1739,
      "temper": 1740,
      "platforms": 1741,
      "oxygen": 1742,
      "principles": 1743,
      "Blockchain": 1744,
      "city": 1745,
      "equi": 1746,
      "found": 1747,
      "her": 1748,
      "hid": 1749,
      "ials": 1750,
      "lands": 1751,
      "want": 1752,
      "ream": 1753,
      "issues": 1754,
      "prog": 1755,
      "proving": 1756,
      "agues": 1757,
      "ells": 1758,
      "developed": 1759,
      "selection": 1760,
      "taking": 1761,
      "recogn": 1762,
      "computers": 1763,
      "functions": 1764,
      "enhouse": 1765,
      "depend": 1766,
      "Improving": 1767,
      "continuous": 1768,
      "hidden": 1769,
      "19": 1770,
      "3D": 1771,
      "aut": 1772,
      "aking": 1773,
      "gain": 1774,
      "mess": 1775,
      "sch": 1776,
      "wast": 1777,
      "infra": 1778,
      "ending": 1779,
      "stren": 1780,
      "top": 1781,
      "activ": 1782,
      "acid": 1783,
      "ecurity": 1784,
      "detect": 1785,
      "dioxide": 1786,
      "peri": 1787,
      "clou": 1788,
      "creative": 1789,
      "compo": 1790,
      "phen": 1791,
      "prevent": 1792,
      "bersecurity": 1793,
      "fix": 1794,
      "clean": 1795,
      "risks": 1796,
      "greenhouse": 1797,
      "release": 1798,
      "refers": 1799,
      "colleagues": 1800,
      "fusion": 1801,
      "mutations": 1802,
      "neurons": 1803,
      "mosomes": 1804,
      "interested": 1805,
      "large": 1806,
      "chromosomes": 1807,
      "infrastructure": 1808,
      "streng": 1809,
      "Pro": 1810,
      "bro": 1811,
      "cour": 1812,
      "da": 1813,
      "ethical": 1814,
      "ger": 1815,
      "mRNA": 1816,
      "now": 1817,
      "will": 1818,
      "enjoy": 1819,
      "oring": 1820,
      "sta": 1821,
      "level": 1822,
      "ards": 1823,
      "forces": 1824,
      "dies": 1825,
      "again": 1826,
      "developing": 1827,
      "suring": 1828,
      "gratitude": 1829,
      "ancial": 1830,
      "influence": 1831,
      "radiation": 1832,
      "rapid": 1833,
      "vehicles": 1834,
      "Ap": 1835,
      "Sun": 1836,
      "cir": 1837,
      "ee": 1838,
      "house": 1839,
      "oce": 1840,
      "anim": 1841,
      "ensure": 1842,
      "acids": 1843,
      "ited": 1844,
      "resource": 1845,
      "comes": 1846,
      "stru": 1847,
      "assistant": 1848,
      "outcomes": 1849,
      "product": 1850,
      "preci": 1851,
      "uncover": 1852,
      "electron": 1853,
      "regulate": 1854,
      "neutr": 1855,
      "rosci": 1856,
      "individual": 1857,
      "materials": 1858,
      "dedic": 1859,
      "placement": 1860,
      "cognitive": 1861,
      "industries": 1862,
      "dynamics": 1863,
      "cataly": 1864,
      "membrane": 1865,
      "immersive": 1866,
      "friendly": 1867,
      "daily": 1868,
      "cost": 1869,
      "mine": 1870,
      "put": 1871,
      "tosynthesis": 1872,
      "istic": 1873,
      "consi": 1874,
      "contain": 1875,
      "netic": 1876,
      "whel": 1877,
      "overwhel": 1878,
      "bring": 1879,
      "cybersecurity": 1880,
      "transform": 1881,
      "respect": 1882,
      "medic": 1883,
      "environments": 1884,
      "intro": 1885,
      "related": 1886,
      "brainstor": 1887,
      "travel": 1888,
      "financial": 1889,
      "impacts": 1890,
      "monit": 1891,
      "focused": 1892,
      "networks": 1893,
      "thank": 1894,
      "integrity": 1895,
      "Neu": 1896,
      "protons": 1897,
      "field": 1898,
      "deadlines": 1899,
      "resolution": 1900,
      "public": 1901,
      "demand": 1902,
      "against": 1903,
      "Com": 1904,
      "hob": 1905,
      "mu": 1906,
      "rup": 1907,
      "turn": 1908,
      "remo": 1909,
      "atten": 1910,
      "absor": 1911,
      "area": 1912,
      "motion": 1913,
      "common": 1914,
      "history": 1915,
      "organized": 1916,
      "authen": 1917,
      "recommendations": 1918,
      "priv": 1919,
      "improvement": 1920,
      "affect": 1921,
      "expect": 1922,
      "neurotransmit": 1923,
      "marketing": 1924,
      "printing": 1925,
      "perspective": 1926,
      "perspectives": 1927,
      "akes": 1928,
      "smaller": 1929,
      "rock": 1930,
      "exercises": 1931,
      "important": 1932,
      "patient": 1933,
      "safety": 1934,
      "temperature": 1935,
      "composition": 1936,
      "cra": 1937,
      "far": 1938,
      "gam": 1939,
      "iosis": 1940,
      "ue": 1941,
      "ased": 1942,
      "promis": 1943,
      "sim": 1944,
      "diag": 1945,
      "otechnology": 1946,
      "lying": 1947,
      "clas": 1948,
      "underg": 1949,
      "involve": 1950,
      "question": 1951,
      "organism": 1952,
      "upi": 1953,
      "uncertain": 1954,
      "locating": 1955,
      "traditional": 1956,
      "respond": 1957,
      "century": 1958,
      "predict": 1959,
      "multi": 1960,
      "anced": 1961,
      "particles": 1962,
      "biodiversity": 1963,
      "gravity": 1964,
      "sensory": 1965,
      "economic": 1966,
      "minimizing": 1967,
      "engineering": 1968,
      "routine": 1969,
      "clarify": 1970,
      "efforts": 1971,
      "metabolism": 1972,
      "much": 1973,
      "Ever": 1974,
      "Ud": 1975,
      "Vir": 1976,
      "gas": 1977,
      "hal": 1978,
      "mom": 1979,
      "wiz": 1980,
      "ward": 1981,
      "roles": 1982,
      "entertain": 1983,
      "unding": 1984,
      "concep": 1985,
      "aphase": 1986,
      "spi": 1987,
      "cities": 1988,
      "sharing": 1989,
      "prefer": 1990,
      "descri": 1991,
      "mythical": 1992,
      "achieving": 1993,
      "poll": 1994,
      "optimize": 1995,
      "shaping": 1996,
      "businesses": 1997,
      "difference": 1998,
      "suggest": 1999,
      "crypto": 2000,
      "agriculture": 2001,
      "sched": 2002,
      "Everything": 2003,
      "Udupi": 2004,
      "Man": 2005,
      "Sp": 2006,
      "bs": 2007,
      "cam": 2008,
      "dam": 2009,
      "inspi": 2010,
      "tiliz": 2011,
      "reli": 2012,
      "rewar": 2013,
      "dev": 2014,
      "sue": 2015,
      "trac": 2016,
      "conduc": 2017,
      "stry": 2018,
      "sever": 2019,
      "weather": 2020,
      "romag": 2021,
      "shop": 2022,
      "transcri": 2023,
      "interactive": 2024,
      "biological": 2025,
      "experience": 2026,
      "recogni": 2027,
      "early": 2028,
      "breathing": 2029,
      "onomous": 2030,
      "generate": 2031,
      "network": 2032,
      "efficient": 2033,
      "influenc": 2034,
      "mindset": 2035,
      "electromag": 2036,
      "respiration": 2037,
      "atmosphere": 2038,
      "dedication": 2039,
      "privacy": 2040,
      "diagn": 2041,
      "Managing": 2042,
      "recognition": 2043,
      "lish": 2044,
      "tar": 2045,
      "ali": 2046,
      "robo": 2047,
      "icy": 2048,
      "editing": 2049,
      "ets": 2050,
      "ablish": 2051,
      "direc": 2052,
      "rial": 2053,
      "ulate": 2054,
      "amount": 2055,
      "disrup": 2056,
      "translation": 2057,
      "grad": 2058,
      "finding": 2059,
      "leadership": 2060,
      "implement": 2061,
      "establish": 2062,
      "mart": 2063,
      "staying": 2064,
      "resulting": 2065,
      "ready": 2066,
      "harness": 2067,
      "transparent": 2068,
      "Staying": 2069,
      "performance": 2070,
      "connect": 2071,
      "gravitation": 2072,
      "revolutionize": 2073,
      "hormones": 2074,
      "programs": 2075,
      "details": 2076,
      "waste": 2077,
      "classi": 2078,
      "target": 2079,
      "Ch": 2080,
      "Machine": 2081,
      "PR": 2082,
      "gative": 2083,
      "non": 2084,
      "nal": 2085,
      "estion": 2086,
      "alized": 2087,
      "cei": 2088,
      "emis": 2089,
      "try": 2090,
      "place": 2091,
      "distr": 2092,
      "oci": 2093,
      "formul": 2094,
      "cient": 2095,
      "solution": 2096,
      "involved": 2097,
      "engage": 2098,
      "productive": 2099,
      "boost": 2100,
      "relativity": 2101,
      "require": 2102,
      "after": 2103,
      "distant": 2104,
      "predictive": 2105,
      "shape": 2106,
      "achievements": 2107,
      "proteins": 2108,
      "population": 2109,
      "navigate": 2110,
      "brainstorming": 2111,
      "concepts": 2112,
      "several": 2113,
      "CRI": 2114,
      "DH": 2115,
      "SPR": 2116,
      "bel": 2117,
      "flex": 2118,
      "ho": 2119,
      "ok": 2120,
      "tural": 2121,
      "ancient": 2122,
      "oro": 2123,
      "ally": 2124,
      "ators": 2125,
      "elf": 2126,
      "elements": 2127,
      "convers": 2128,
      "exc": 2129,
      "gency": 2130,
      "osed": 2131,
      "percep": 2132,
      "phy": 2133,
      "engagement": 2134,
      "transactions": 2135,
      "interact": 2136,
      "organic": 2137,
      "past": 2138,
      "every": 2139,
      "associ": 2140,
      "fied": 2141,
      "ledge": 2142,
      "secure": 2143,
      "decisions": 2144,
      "optimizing": 2145,
      "invest": 2146,
      "waves": 2147,
      "phosp": 2148,
      "valuable": 2149,
      "activation": 2150,
      "medicine": 2151,
      "wizard": 2152,
      "CRISPR": 2153,
      "ade": 2154,
      "bies": 2155,
      "best": 2156,
      "gases": 2157,
      "iver": 2158,
      "nec": 2159,
      "pH": 2160,
      "instru": 2161,
      "remain": 2162,
      "atch": 2163,
      "states": 2164,
      "ilos": 2165,
      "mood": 2166,
      "spells": 2167,
      "ometric": 2168,
      "working": 2169,
      "disci": 2170,
      "mainten": 2171,
      "pressure": 2172,
      "regulation": 2173,
      "origin": 2174,
      "neurosci": 2175,
      "proaching": 2176,
      "pathog": 2177,
      "nuclear": 2178,
      "challenging": 2179,
      "identifying": 2180,
      "exploring": 2181,
      "conflict": 2182,
      "mutual": 2183,
      "altern": 2184,
      "examples": 2185,
      "habit": 2186,
      "scientists": 2187,
      "archit": 2188,
      "equip": 2189,
      "recognizing": 2190,
      "Approaching": 2191,
      "hobbies": 2192,
      "Virtual": 2193,
      "entertainment": 2194,
      "emissions": 2195,
      "flexi": 2196,
      "physi": 2197,
      "necess": 2198,
      "ilosop": 2199,
      "discipl": 2200,
      "maintenance": 2201,
      "Rene": 2202,
      "astronomers": 2203,
      "bacter": 2204,
      "dr": 2205,
      "dou": 2206,
      "oking": 2207,
      "pt": 2208,
      "pare": 2209,
      "post": 2210,
      "tam": 2211,
      "wable": 2212,
      "yond": 2213,
      "another": 2214,
      "enzymes": 2215,
      "along": 2216,
      "stu": 2217,
      "toge": 2218,
      "appreci": 2219,
      "did": 2220,
      "opin": 2221,
      "among": 2222,
      "beyond": 2223,
      "negative": 2224,
      "created": 2225,
      "fication": 2226,
      "interven": 2227,
      "medi": 2228,
      "precis": 2229,
      "cultiv": 2230,
      "fail": 2231,
      "breaks": 2232,
      "critic": 2233,
      "deliver": 2234,
      "account": 2235,
      "investigate": 2236,
      "harm": 2237,
      "determine": 2238,
      "constructive": 2239,
      "rocks": 2240,
      "transportation": 2241,
      "unlock": 2242,
      "levels": 2243,
      "uncovering": 2244,
      "cryptograp": 2245,
      "phosph": 2246,
      "Renewable": 2247,
      "tamper": 2248,
      "together": 2249,
      "Lear": 2250,
      "air": 2251,
      "around": 2252,
      "crop": 2253,
      "equ": 2254,
      "hero": 2255,
      "happ": 2256,
      "tes": 2257,
      "inc": 2258,
      "inj": 2259,
      "informed": 2260,
      "erm": 2261,
      "enes": 2262,
      "ormal": 2263,
      "rounding": 2264,
      "stream": 2265,
      "accur": 2266,
      "ational": 2267,
      "living": 2268,
      "unable": 2269,
      "division": 2270,
      "kehold": 2271,
      "separ": 2272,
      "workforce": 2273,
      "compound": 2274,
      "transfer": 2275,
      "organs": 2276,
      "organiz": 2277,
      "both": 2278,
      "specify": 2279,
      "type": 2280,
      "experiments": 2281,
      "realistic": 2282,
      "coord": 2283,
      "functional": 2284,
      "generation": 2285,
      "oxid": 2286,
      "aware": 2287,
      "seek": 2288,
      "character": 2289,
      "superhero": 2290,
      "enables": 2291,
      "fraud": 2292,
      "continent": 2293,
      "reflec": 2294,
      "knowledge": 2295,
      "nutrients": 2296,
      "secrets": 2297,
      "emotional": 2298,
      "three": 2299,
      "encouraging": 2300,
      "cosmic": 2301,
      "detection": 2302,
      "stakehold": 2303,
      "ocean": 2304,
      "monitoring": 2305,
      "necessary": 2306,
      "Learning": 2307,
      "stakeholders": 2308,
      "Cl": 2309,
      "Not": 2310,
      "Qu": 2311,
      "log": 2312,
      "tell": 2313,
      "vant": 2314,
      "won": 2315,
      "resist": 2316,
      "recept": 2317,
      "recei": 2318,
      "thou": 2319,
      "ensuring": 2320,
      "ories": 2321,
      "ale": 2322,
      "ise": 2323,
      "Why": 2324,
      "mentors": 2325,
      "imaging": 2326,
      "before": 2327,
      "dest": 2328,
      "plans": 2329,
      "underlying": 2330,
      "drive": 2331,
      "coding": 2332,
      "due": 2333,
      "nature": 2334,
      "focusing": 2335,
      "relevant": 2336,
      "result": 2337,
      "increasing": 2338,
      "photosynthesis": 2339,
      "specialized": 2340,
      "writing": 2341,
      "gmented": 2342,
      "cloud": 2343,
      "Neuro": 2344,
      "promise": 2345,
      "gravitational": 2346,
      "distractions": 2347,
      "conversations": 2348,
      "bacteria": 2349,
      "parent": 2350,
      "criticism": 2351,
      "wonder": 2352,
      "Al": 2353,
      "De": 2354,
      "FG": 2355,
      "GFG": 2356,
      "cort": 2357,
      "fre": 2358,
      "gent": 2359,
      "hom": 2360,
      "idi": 2361,
      "pass": 2362,
      "sle": 2363,
      "xim": 2364,
      "instruc": 2365,
      "tism": 2366,
      "ends": 2367,
      "ately": 2368,
      "asp": 2369,
      "omen": 2370,
      "embr": 2371,
      "implications": 2372,
      "ically": 2373,
      "class": 2374,
      "yourself": 2375,
      "haz": 2376,
      "raw": 2377,
      "phase": 2378,
      "histor": 2379,
      "experimentation": 2380,
      "electrical": 2381,
      "times": 2382,
      "surrounding": 2383,
      "students": 2384,
      "metals": 2385,
      "great": 2386,
      "mitigate": 2387,
      "needed": 2388,
      "Star": 2389,
      "fuels": 2390,
      "connec": 2391,
      "plasticity": 2392,
      "facilitating": 2393,
      "replication": 2394,
      "autonomous": 2395,
      "messeng": 2396,
      "phenomen": 2397,
      "courses": 2398,
      "remote": 2399,
      "expectations": 2400,
      "awareness": 2401,
      "Quantum": 2402,
      "GFGC": 2403,
      "cortex": 2404,
      "Fost": 2405,
      "Un": 2406,
      "bur": 2407,
      "even": 2408,
      "lin": 2409,
      "los": 2410,
      "osphere": 2411,
      "vot": 2412,
      "wide": 2413,
      "recharge": 2414,
      "eness": 2415,
      "tos": 2416,
      "iter": 2417,
      "edi": 2418,
      "plate": 2419,
      "moder": 2420,
      "meiosis": 2421,
      "spa": 2422,
      "tiveness": 2423,
      "heli": 2424,
      "transition": 2425,
      "viruses": 2426,
      "someone": 2427,
      "geologists": 2428,
      "observ": 2429,
      "questions": 2430,
      "organization": 2431,
      "surve": 2432,
      "critical": 2433,
      "position": 2434,
      "identity": 2435,
      "treas": 2436,
      "sense": 2437,
      "problems": 2438,
      "needs": 2439,
      "increase": 2440,
      "nuclei": 2441,
      "music": 2442,
      "Enzymes": 2443,
      "simulations": 2444,
      "measures": 2445,
      "range": 2446,
      "single": 2447,
      "electricity": 2448,
      "landscap": 2449,
      "neutrons": 2450,
      "overwhelmed": 2451,
      "moment": 2452,
      "devices": 2453,
      "associated": 2454,
      "neuroscience": 2455,
      "accountability": 2456,
      "harmful": 2457,
      "Fostering": 2458,
      "Hor": 2459,
      "Pl": 2460,
      "Yes": 2461,
      "ati": 2462,
      "ath": 2463,
      "bed": 2464,
      "fam": 2465,
      "his": 2466,
      "ition": 2467,
      "iel": 2468,
      "land": 2469,
      "otic": 2470,
      "ring": 2471,
      "smart": 2472,
      "telescop": 2473,
      "intu": 2474,
      "inher": 2475,
      "react": 2476,
      "alog": 2477,
      "total": 2478,
      "istics": 2479,
      "projects": 2480,
      "entr": 2481,
      "lif": 2482,
      "track": 2483,
      "ains": 2484,
      "head": 2485,
      "apps": 2486,
      "ulations": 2487,
      "extr": 2488,
      "osomes": 2489,
      "fications": 2490,
      "effect": 2491,
      "compon": 2492,
      "technical": 2493,
      "illing": 2494,
      "changing": 2495,
      "part": 2496,
      "myster": 2497,
      "these": 2498,
      "called": 2499,
      "polar": 2500,
      "molecu": 2501,
      "college": 2502,
      "soil": 2503,
      "addressing": 2504,
      "Genetic": 2505,
      "confidence": 2506,
      "dependent": 2507,
      "broken": 2508,
      "undergo": 2509,
      "perception": 2510,
      "organizations": 2511,
      "sleep": 2512,
      "historical": 2513,
      "modern": 2514,
      "spatial": 2515,
      "molecule": 2516,
      "ray": 2517,
      "zation": 2518,
      "rests": 2519,
      "ult": 2520,
      "illi": 2521,
      "mod": 2522,
      "amin": 2523,
      "quakes": 2524,
      "many": 2525,
      "assistants": 2526,
      "volcan": 2527,
      "composed": 2528,
      "share": 2529,
      "explo": 2530,
      "obal": 2531,
      "structures": 2532,
      "flow": 2533,
      "location": 2534,
      "That": 2535,
      "regulating": 2536,
      "method": 2537,
      "interests": 2538,
      "disturb": 2539,
      "green": 2540,
      "caused": 2541,
      "particip": 2542,
      "fields": 2543,
      "employee": 2544,
      "answ": 2545,
      "teleport": 2546,
      "sunlight": 2547,
      "records": 2548,
      "period": 2549,
      "strengthen": 2550,
      "multiple": 2551,
      "pollution": 2552,
      "Space": 2553,
      "rewarding": 2554,
      "alternative": 2555,
      "flexibility": 2556,
      "physiological": 2557,
      "Hormones": 2558,
      "Au": 2559,
      "Bu": 2560,
      "danger": 2561,
      "eti": 2562,
      "evol": 2563,
      "gly": 2564,
      "grou": 2565,
      "la": 2566,
      "oth": 2567,
      "smo": 2568,
      "tut": 2569,
      "inary": 2570,
      "onics": 2571,
      "aling": 2572,
      "stability": 2573,
      "artic": 2574,
      "emit": 2575,
      "unity": 2576,
      "resh": 2577,
      "right": 2578,
      "most": 2579,
      "modi": 2580,
      "ocation": 2581,
      "competi": 2582,
      "philosop": 2583,
      "maj": 2584,
      "interpre": 2585,
      "decentr": 2586,
      "task": 2587,
      "humans": 2588,
      "global": 2589,
      "feelings": 2590,
      "movements": 2591,
      "spirit": 2592,
      "tectonics": 2593,
      "molecular": 2594,
      "prioritizing": 2595,
      "reading": 2596,
      "sessions": 2597,
      "tissues": 2598,
      "book": 2599,
      "populations": 2600,
      "friends": 2601,
      "measure": 2602,
      "Any": 2603,
      "beginner": 2604,
      "topics": 2605,
      "transforming": 2606,
      "neurotransmitters": 2607,
      "influencing": 2608,
      "cultivate": 2609,
      "receptors": 2610,
      "thoughts": 2611,
      "tosis": 2612,
      "decentralized": 2613,
      "backs": 2614,
      "eu": 2615,
      "ffic": 2616,
      "host": 2617,
      "hard": 2618,
      "jec": 2619,
      "mys": 2620,
      "ped": 2621,
      "sof": 2622,
      "sound": 2623,
      "sedi": 2624,
      "yiel": 2625,
      "anti": 2626,
      "orbit": 2627,
      "state": 2628,
      "stant": 2629,
      "eler": 2630,
      "lever": 2631,
      "forward": 2632,
      "pler": 2633,
      "dialog": 2634,
      "aged": 2635,
      "ulating": 2636,
      "ilding": 2637,
      "iring": 2638,
      "genome": 2639,
      "keep": 2640,
      "matic": 2641,
      "cycl": 2642,
      "tually": 2643,
      "traffic": 2644,
      "drift": 2645,
      "setbacks": 2646,
      "visi": 2647,
      "society": 2648,
      "distrib": 2649,
      "cars": 2650,
      "advice": 2651,
      "acceler": 2652,
      "frame": 2653,
      "ditionally": 2654,
      "layers": 2655,
      "address": 2656,
      "combination": 2657,
      "appli": 2658,
      "Additionally": 2659,
      "celebrate": 2660,
      "supportive": 2661,
      "therapy": 2662,
      "mineral": 2663,
      "animals": 2664,
      "costs": 2665,
      "introdu": 2666,
      "studies": 2667,
      "aspects": 2668,
      "loss": 2669,
      "components": 2670,
      "Building": 2671,
      "dangerous": 2672,
      "smooth": 2673,
      "major": 2674,
      "dialogue": 2675,
      "distribution": 2676,
      "As": 2677,
      "During": 2678,
      "My": 2679,
      "Set": 2680,
      "cut": 2681,
      "fil": 2682,
      "ga": 2683,
      "pically": 2684,
      "ran": 2685,
      "rates": 2686,
      "tor": 2687,
      "uli": 2688,
      "inating": 2689,
      "inspir": 2690,
      "anom": 2691,
      "ont": 2692,
      "ths": 2693,
      "att": 2694,
      "ator": 2695,
      "element": 2696,
      "arity": 2697,
      "ises": 2698,
      "acces": 2699,
      "amples": 2700,
      "adjust": 2701,
      "ghost": 2702,
      "ellular": 2703,
      "sea": 2704,
      "wee": 2705,
      "overview": 2706,
      "made": 2707,
      "shared": 2708,
      "objec": 2709,
      "board": 2710,
      "typically": 2711,
      "assem": 2712,
      "unique": 2713,
      "local": 2714,
      "guide": 2715,
      "earth": 2716,
      "dele": 2717,
      "calcul": 2718,
      "blocking": 2719,
      "speaking": 2720,
      "layer": 2721,
      "exercise": 2722,
      "Examples": 2723,
      "stimuli": 2724,
      "unlocking": 2725,
      "Geologists": 2726,
      "scale": 2727,
      "consumption": 2728,
      "progress": 2729,
      "diagnos": 2730,
      "classified": 2731,
      "appreciation": 2732,
      "articles": 2733,
      "Setting": 2734,
      "Just": 2735,
      "dence": 2736,
      "evi": 2737,
      "ging": 2738,
      "men": 2739,
      "normal": 2740,
      "ored": 2741,
      "rine": 2742,
      "yog": 2743,
      "year": 2744,
      "ini": 2745,
      "endo": 2746,
      "asis": 2747,
      "asser": 2748,
      "often": 2749,
      "lists": 2750,
      "chl": 2751,
      "emer": 2752,
      "trace": 2753,
      "plant": 2754,
      "unwind": 2755,
      "iling": 2756,
      "meet": 2757,
      "manip": 2758,
      "displacement": 2759,
      "allows": 2760,
      "overcome": 2761,
      "thermo": 2762,
      "master": 2763,
      "taining": 2764,
      "black": 2765,
      "transformation": 2766,
      "producing": 2767,
      "obser": 2768,
      "communities": 2769,
      "serious": 2770,
      "diffic": 2771,
      "point": 2772,
      "bases": 2773,
      "valent": 2774,
      "values": 2775,
      "storage": 2776,
      "reduced": 2777,
      "holds": 2778,
      "micro": 2779,
      "coping": 2780,
      "causes": 2781,
      "controlling": 2782,
      "same": 2783,
      "educational": 2784,
      "importance": 2785,
      "sugges": 2786,
      "convert": 2787,
      "foll": 2788,
      "hydrogen": 2789,
      "consider": 2790,
      "electromagnetic": 2791,
      "exciting": 2792,
      "pathogens": 2793,
      "double": 2794,
      "phenomena": 2795,
      "treasures": 2796,
      "amino": 2797,
      "earthquakes": 2798,
      ".,": 2799,
      "City": 2800,
      "Telescop": 2801,
      "bes": 2802,
      "cit": 2803,
      "cross": 2804,
      "dom": 2805,
      "doc": 2806,
      "fo": 2807,
      "fund": 2808,
      "gri": 2809,
      "gaining": 2810,
      "kary": 2811,
      "ler": 2812,
      "mas": 2813,
      "oor": 2814,
      "oto": 2815,
      "rain": 2816,
      "ule": 2817,
      "xiety": 2818,
      "inste": 2819,
      "anxiety": 2820,
      "reci": 2821,
      "reproduction": 2822,
      "attr": 2823,
      "atbo": 2824,
      "road": 2825,
      "elves": 2826,
      "tox": 2827,
      "issue": 2828,
      "sitions": 2829,
      "demon": 2830,
      "options": 2831,
      "exist": 2832,
      "netism": 2833,
      "ocrine": 2834,
      "helpful": 2835,
      "cred": 2836,
      "indu": 2837,
      "oded": 2838,
      "endocrine": 2839,
      "civi": 2840,
      "colysis": 2841,
      "fertiliz": 2842,
      "auth": 2843,
      "fulf": 2844,
      "othermal": 2845,
      "discussions": 2846,
      "ledger": 2847,
      "calend": 2848,
      "digestion": 2849,
      "networking": 2850,
      "professionals": 2851,
      "express": 2852,
      "expressing": 2853,
      "block": 2854,
      "approaches": 2855,
      "mechanics": 2856,
      "increased": 2857,
      "collec": 2858,
      "safe": 2859,
      "evolutionary": 2860,
      "nutritional": 2861,
      "radio": 2862,
      "sensors": 2863,
      "Expl": 2864,
      "Big": 2865,
      "minerals": 2866,
      "19th": 2867,
      "uncertainty": 2868,
      "schedule": 2869,
      "transcription": 2870,
      "efficiently": 2871,
      "aliens": 2872,
      "architects": 2873,
      "interventions": 2874,
      "injury": 2875,
      "hazards": 2876,
      "messengers": 2877,
      "family": 2878,
      "telescopes": 2879,
      "totally": 2880,
      "disturbances": 2881,
      "evidence": 2882,
      "thermodynamics": 2883,
      "citric": 2884,
      "karyotic": 2885,
      "atbots": 2886,
      "demonstr": 2887,
      "Jam": 2888,
      "Main": 2889,
      "bene": 2890,
      "burn": 2891,
      "egg": 2892,
      "fit": 2893,
      "mary": 2894,
      "nan": 2895,
      "rate": 2896,
      "sw": 2897,
      "ton": 2898,
      "vast": 2899,
      "things": 2900,
      "orb": 2901,
      "arrang": 2902,
      "acting": 2903,
      "actually": 2904,
      "cho": 2905,
      "contr": 2906,
      "seism": 2907,
      "NADH": 2908,
      "biom": 2909,
      "variation": 2910,
      "chemi": 2911,
      "pois": 2912,
      "ione": 2913,
      "presence": 2914,
      "butions": 2915,
      "required": 2916,
      "intelligent": 2917,
      "played": 2918,
      "soci": 2919,
      "metaphase": 2920,
      "advanced": 2921,
      "miti": 2922,
      "behavioral": 2923,
      "loved": 2924,
      "erosion": 2925,
      "motivation": 2926,
      "economy": 2927,
      "secret": 2928,
      "assessment": 2929,
      "operations": 2930,
      "treatment": 2931,
      "ribosomes": 2932,
      "household": 2933,
      "authentic": 2934,
      "discipline": 2935,
      "landscape": 2936,
      "volcanic": 2937,
      "glycolysis": 2938,
      "interpret": 2939,
      "introduce": 2940,
      "yoga": 2941,
      "initi": 2942,
      "docu": 2943,
      "industry": 2944,
      "calendars": 2945,
      "James": 2946,
      "Maintaining": 2947,
      "seismic": 2948,
      "Astronomers": 2949,
      "Bang": 2950,
      "Ec": 2951,
      "Genes": 2952,
      "ae": 2953,
      "count": 2954,
      "dens": 2955,
      "dark": 2956,
      "draw": 2957,
      "four": 2958,
      "ges": 2959,
      "mount": 2960,
      "tel": 2961,
      "vate": 2962,
      "wal": 2963,
      "yru": 2964,
      "infec": 2965,
      "input": 2966,
      "ann": 2967,
      "onto": 2968,
      "only": 2969,
      "ret": 2970,
      "replacement": 2971,
      "err": 2972,
      "align": 2973,
      "thems": 2974,
      "acing": 2975,
      "proc": 2976,
      "ches": 2977,
      "chann": 2978,
      "cons": 2979,
      "ograp": 2980,
      "ambi": 2981,
      "clarity": 2982,
      "provides": 2983,
      "workers": 2984,
      "sym": 2985,
      "solid": 2986,
      "teamwork": 2987,
      "rought": 2988,
      "region": 2989,
      "mapping": 2990,
      "ounds": 2991,
      "started": 2992,
      "finance": 2993,
      "orials": 2994,
      "primary": 2995,
      "distance": 2996,
      "trees": 2997,
      "expand": 2998,
      "collaborative": 2999,
      "supervis": 3000,
      "wards": 3001,
      "investing": 3002,
      "dense": 3003,
      "neuron": 3004,
      "sequences": 3005,
      "differenti": 3006,
      "deadly": 3007,
      "discovery": 3008,
      "urban": 3009,
      "recording": 3010,
      "attention": 3011,
      "authenticity": 3012,
      "robotics": 3013,
      "gradual": 3014,
      "requirements": 3015,
      "opinion": 3016,
      "failures": 3017,
      "classical": 3018,
      "Starting": 3019,
      "evolving": 3020,
      "tutorials": 3021,
      "sediment": 3022,
      "yield": 3023,
      "emergency": 3024,
      "difficult": 3025,
      "considerations": 3026,
      "yruvate": 3027,
      "themselves": 3028,
      "Each": 3029,
      "Einste": 3030,
      "Techn": 3031,
      "atic": 3032,
      "binding": 3033,
      "coun": 3034,
      "dance": 3035,
      "dering": 3036,
      "gation": 3037,
      "gard": 3038,
      "itical": 3039,
      "mation": 3040,
      "oid": 3041,
      "pul": 3042,
      "tl": 3043,
      "table": 3044,
      "inqui": 3045,
      "eries": 3046,
      "ense": 3047,
      "atus": 3048,
      "roy": 3049,
      "isoto": 3050,
      "demo": 3051,
      "chatbots": 3052,
      "unic": 3053,
      "conven": 3054,
      "agents": 3055,
      "exec": 3056,
      "modif": 3057,
      "spending": 3058,
      "quiring": 3059,
      "inetic": 3060,
      "weight": 3061,
      "compan": 3062,
      "raises": 3063,
      "inclusive": 3064,
      "mak": 3065,
      "obo": 3066,
      "colon": 3067,
      "color": 3068,
      "spectr": 3069,
      "preser": 3070,
      "decom": 3071,
      "syndro": 3072,
      "regulatory": 3073,
      "orities": 3074,
      "idea": 3075,
      "generating": 3076,
      "political": 3077,
      "greater": 3078,
      "solute": 3079,
      "crust": 3080,
      "relationship": 3081,
      "prioritization": 3082,
      "adaptation": 3083,
      "manageable": 3084,
      "magnetic": 3085,
      "enhances": 3086,
      "significance": 3087,
      "curi": 3088,
      "speed": 3089,
      "lower": 3090,
      "groundwater": 3091,
      "celebrating": 3092,
      "determined": 3093,
      "consumer": 3094,
      "foundation": 3095,
      "half": 3096,
      "characteristics": 3097,
      "connections": 3098,
      "inherit": 3099,
      "rays": 3100,
      "periodic": 3101,
      "modifications": 3102,
      "softw": 3103,
      "cycling": 3104,
      "applied": 3105,
      "inspiration": 3106,
      "funda": 3107,
      "credited": 3108,
      "civiliz": 3109,
      "author": 3110,
      "burnout": 3111,
      "authentication": 3112,
      "Einstein": 3113,
      "inquiries": 3114,
      "syndrome": 3115,
      "Bec": 3116,
      "HR": 3117,
      "More": 3118,
      "Te": 3119,
      "avi": 3120,
      "bar": 3121,
      "fant": 3122,
      "government": 3123,
      "hum": 3124,
      "ired": 3125,
      "ique": 3126,
      "ju": 3127,
      "kinetic": 3128,
      "lend": 3129,
      "mn": 3130,
      "must": 3131,
      "nic": 3132,
      "othing": 3133,
      "pione": 3134,
      "tle": 3135,
      "win": 3136,
      "infr": 3137,
      "anaphase": 3138,
      "erase": 3139,
      "ording": 3140,
      "icious": 3141,
      "ission": 3142,
      "prom": 3143,
      "pros": 3144,
      "prophase": 3145,
      "def": 3146,
      "depos": 3147,
      "chrom": 3148,
      "sug": 3149,
      "mentaries": 3150,
      "diver": 3151,
      "ults": 3152,
      "ulum": 3153,
      "motor": 3154,
      "amp": 3155,
      "spac": 3156,
      "nego": 3157,
      "ock": 3158,
      "white": 3159,
      "clos": 3160,
      "creatures": 3161,
      "ides": 3162,
      "assisting": 3163,
      "transitions": 3164,
      "viral": 3165,
      "includes": 3166,
      "outdo": 3167,
      "maxim": 3168,
      "solve": 3169,
      "ostasis": 3170,
      "cyto": 3171,
      "transl": 3172,
      "goods": 3173,
      "bodies": 3174,
      "sky": 3175,
      "audi": 3176,
      "parall": 3177,
      "improved": 3178,
      "maps": 3179,
      "survi": 3180,
      "affec": 3181,
      "treating": 3182,
      "polym": 3183,
      "policy": 3184,
      "opportunity": 3185,
      "morale": 3186,
      "transmission": 3187,
      "sustainability": 3188,
      "according": 3189,
      "restrial": 3190,
      "wave": 3191,
      "emotions": 3192,
      "threats": 3193,
      "example": 3194,
      "discovering": 3195,
      "drugs": 3196,
      "programming": 3197,
      "supporting": 3198,
      "visualize": 3199,
      "dependence": 3200,
      "considering": 3201,
      "tracking": 3202,
      "direct": 3203,
      "implementing": 3204,
      "formula": 3205,
      "postsynaptic": 3206,
      "precise": 3207,
      "cryptography": 3208,
      "testing": 3209,
      "separate": 3210,
      "resistance": 3211,
      "surveys": 3212,
      "frameworks": 3213,
      "delegating": 3214,
      "following": 3215,
      "Explain": 3216,
      "demonstrating": 3217,
      "fitness": 3218,
      "documentaries": 3219,
      "ambigu": 3220,
      "inheritance": 3221,
      "software": 3222,
      "Moreover": 3223,
      "Team": 3224,
      "fantas": 3225,
      "negoti": 3226,
      "polymerase": 3227,
      "Cre": 3228,
      "Cellular": 3229,
      "Gol": 3230,
      "On": 3231,
      "Pom": 3232,
      "Pri": 3233,
      "Pot": 3234,
      "Sh": 3235,
      "Soc": 3236,
      "asts": 3237,
      "bud": 3238,
      "brought": 3239,
      "dwar": 3240,
      "equal": 3241,
      "fur": 3242,
      "hot": 3243,
      "ive": 3244,
      "iding": 3245,
      "kan": 3246,
      "mach": 3247,
      "scan": 3248,
      "sem": 3249,
      "vul": 3250,
      "would": 3251,
      "ype": 3252,
      "yoor": 3253,
      "aning": 3254,
      "tides": 3255,
      "refer": 3256,
      "enkan": 3257,
      "orop": 3258,
      "alies": 3259,
      "theore": 3260,
      "arding": 3261,
      "assion": 3262,
      "accom": 3263,
      "live": 3264,
      "emerg": 3265,
      "heart": 3266,
      "agre": 3267,
      "aden": 3268,
      "queries": 3269,
      "ghting": 3270,
      "angle": 3271,
      "helps": 3272,
      "seem": 3273,
      "commit": 3274,
      "workplace": 3275,
      "entists": 3276,
      "odoro": 3277,
      "allic": 3278,
      "brings": 3279,
      "geothermal": 3280,
      "outside": 3281,
      "mathe": 3282,
      "internet": 3283,
      "series": 3284,
      "organize": 3285,
      "throughout": 3286,
      "news": 3287,
      "coll": 3288,
      "biotechnology": 3289,
      "augmented": 3290,
      "bonding": 3291,
      "Thenkan": 3292,
      "immut": 3293,
      "hyll": 3294,
      "mete": 3295,
      "distri": 3296,
      "distinc": 3297,
      "generative": 3298,
      "nets": 3299,
      "collaborate": 3300,
      "behaviors": 3301,
      "holes": 3302,
      "rolog": 3303,
      "predictions": 3304,
      "getting": 3305,
      "forecast": 3306,
      "shapes": 3307,
      "results": 3308,
      "particular": 3309,
      "pairs": 3310,
      "magic": 3311,
      "muscle": 3312,
      "construction": 3313,
      "biochemical": 3314,
      "giant": 3315,
      "aneous": 3316,
      "substance": 3317,
      "treatments": 3318,
      "fossils": 3319,
      "views": 3320,
      "homeostasis": 3321,
      "rapidly": 3322,
      "circul": 3323,
      "contains": 3324,
      "schedul": 3325,
      "inspired": 3326,
      "conducting": 3327,
      "establishing": 3328,
      "Chem": 3329,
      "equipment": 3330,
      "equipped": 3331,
      "phosphate": 3332,
      "oxidative": 3333,
      "continental": 3334,
      "idiyoor": 3335,
      "instructions": 3336,
      "Unlike": 3337,
      "intuition": 3338,
      "lifes": 3339,
      "visible": 3340,
      "anomalies": 3341,
      "attacks": 3342,
      "accessible": 3343,
      "channels": 3344,
      "fundamental": 3345,
      "Creating": 3346,
      "Pomodoro": 3347,
      "dwarf": 3348,
      "vulner": 3349,
      "orophyll": 3350,
      "theoretical": 3351,
      "Thenkanidiyoor": 3352,
      "Co": 3353,
      "Em": 3354,
      "Li": 3355,
      "Lord": 3356,
      "MRI": 3357,
      "Re": 3358,
      "Sup": 3359,
      "aim": 3360,
      "celes": 3361,
      "dust": 3362,
      "ees": 3363,
      "fas": 3364,
      "govern": 3365,
      "jo": 3366,
      "kind": 3367,
      "mil": 3368,
      "munic": 3369,
      "pan": 3370,
      "sc": 3371,
      "shi": 3372,
      "snow": 3373,
      "vam": 3374,
      "zy": 3375,
      "reques": 3376,
      "rogen": 3377,
      "sty": 3378,
      "stination": 3379,
      "ick": 3380,
      "legen": 3381,
      "eck": 3382,
      "prop": 3383,
      "proto": 3384,
      "eding": 3385,
      "sitive": 3386,
      "depl": 3387,
      "degrad": 3388,
      "chase": 3389,
      "consul": 3390,
      "appro": 3391,
      "moving": 3392,
      "meal": 3393,
      "meaning": 3394,
      "ghter": 3395,
      "izes": 3396,
      "elles": 3397,
      "whis": 3398,
      "strand": 3399,
      "helping": 3400,
      "creates": 3401,
      "compounds": 3402,
      "allow": 3403,
      "show": 3404,
      "goal": 3405,
      "peti": 3406,
      "organelles": 3407,
      "box": 3408,
      "orylation": 3409,
      "biometric": 3410,
      "variations": 3411,
      "presents": 3412,
      "faults": 3413,
      "potentially": 3414,
      "code": 3415,
      "priorities": 3416,
      "cribe": 3417,
      "studying": 3418,
      "physics": 3419,
      "valence": 3420,
      "succes": 3421,
      "oritizing": 3422,
      "predicting": 3423,
      "pursu": 3424,
      "planetary": 3425,
      "satis": 3426,
      "load": 3427,
      "automate": 3428,
      "visionaries": 3429,
      "mosis": 3430,
      "pire": 3431,
      "synapses": 3432,
      "cuits": 3433,
      "emotion": 3434,
      "encourage": 3435,
      "galaxy": 3436,
      "cognition": 3437,
      "psychic": 3438,
      "determines": 3439,
      "circuits": 3440,
      "catalysts": 3441,
      "bringing": 3442,
      "introduc": 3443,
      "Communic": 3444,
      "describes": 3445,
      "relief": 3446,
      "phosphorylation": 3447,
      "answering": 3448,
      "teleportation": 3449,
      "reshap": 3450,
      "objectives": 3451,
      "traceability": 3452,
      "Telescope": 3453,
      "recipes": 3454,
      "chemistry": 3455,
      "counter": 3456,
      "supervisors": 3457,
      "Technique": 3458,
      "isotopes": 3459,
      "spectrum": 3460,
      "Becoming": 3461,
      "infrared": 3462,
      "prompt": 3463,
      "ambiguous": 3464,
      "Prioritizing": 3465,
      "Social": 3466,
      "budget": 3467,
      "further": 3468,
      "mathema": 3469,
      "celestial": 3470,
      "vampire": 3471,
      "deploy": 3472,
      "Communicating": 3473,
      "Aci": 3474,
      "Atl": 3475,
      "Berm": 3476,
      "Def": 3477,
      "Data": 3478,
      "He": 3479,
      "Io": 3480,
      "Over": 3481,
      "Spec": 3482,
      "Tri": 3483,
      "aer": 3484,
      "away": 3485,
      "cli": 3486,
      "certain": 3487,
      "dog": 3488,
      "dau": 3489,
      "fun": 3490,
      "faction": 3491,
      "gather": 3492,
      "hun": 3493,
      "ior": 3494,
      "ied": 3495,
      "oplanets": 3496,
      "rich": 3497,
      "sl": 3498,
      "tou": 3499,
      "turing": 3500,
      "uces": 3501,
      "ups": 3502,
      "vital": 3503,
      "watch": 3504,
      "iner": 3505,
      "inate": 3506,
      "incor": 3507,
      "instant": 3508,
      "antis": 3509,
      "rob": 3510,
      "step": 3511,
      "elim": 3512,
      "topic": 3513,
      "iture": 3514,
      "ecological": 3515,
      "protect": 3516,
      "edge": 3517,
      "lip": 3518,
      "lith": 3519,
      "emade": 3520,
      "plish": 3521,
      "eter": 3522,
      "abund": 3523,
      "diet": 3524,
      "dimen": 3525,
      "oph": 3526,
      "ophase": 3527,
      "urgency": 3528,
      "moon": 3529,
      "movi": 3530,
      "ading": 3531,
      "sperm": 3532,
      "image": 3533,
      "osity": 3534,
      "strong": 3535,
      "provided": 3536,
      "disast": 3537,
      "indic": 3538,
      "complement": 3539,
      "overbur": 3540,
      "aterrestrial": 3541,
      "uda": 3542,
      "relative": 3543,
      "fully": 3544,
      "underwater": 3545,
      "chemicals": 3546,
      "basic": 3547,
      "locate": 3548,
      "atest": 3549,
      "surround": 3550,
      "fire": 3551,
      "covalent": 3552,
      "hypo": 3553,
      "epi": 3554,
      "contributions": 3555,
      "roscop": 3556,
      "capable": 3557,
      "identities": 3558,
      "languages": 3559,
      "reduction": 3560,
      "ggling": 3561,
      "institu": 3562,
      "cope": 3563,
      "releasing": 3564,
      "foreign": 3565,
      "optimization": 3566,
      "unethical": 3567,
      "Whether": 3568,
      "name": 3569,
      "transmitters": 3570,
      "adaptable": 3571,
      "dened": 3572,
      "automating": 3573,
      "nutrient": 3574,
      "neuronal": 3575,
      "talk": 3576,
      "employment": 3577,
      "purpose": 3578,
      "enhanced": 3579,
      "threat": 3580,
      "combin": 3581,
      "combine": 3582,
      "cryst": 3583,
      "avo": 3584,
      "offers": 3585,
      "bright": 3586,
      "facilitate": 3587,
      "scientific": 3588,
      "progres": 3589,
      "attending": 3590,
      "neurotransmitter": 3591,
      "electromagnetism": 3592,
      "instrumental": 3593,
      "habitat": 3594,
      "cryptographic": 3595,
      "happiness": 3596,
      "Neurotransmitters": 3597,
      "free": 3598,
      "homemade": 3599,
      "extraterrestrial": 3600,
      "massive": 3601,
      "poison": 3602,
      "mitigating": 3603,
      "telophase": 3604,
      "decomposition": 3605,
      "deposits": 3606,
      "Golgi": 3607,
      "accomplish": 3608,
      "rological": 3609,
      "lifesty": 3610,
      "satisfaction": 3611,
      "Acids": 3612,
      "Atlantis": 3613,
      "Bermuda": 3614,
      "IoT": 3615,
      "Triangle": 3616,
      "daughter": 3617,
      "incorpor": 3618,
      "complementary": 3619,
      "overburdened": 3620,
      "surrounded": 3621,
      "18": 3622,
      "ADH": 3623,
      "Pr": 3624,
      "See": 3625,
      "bul": 3626,
      "billi": 3627,
      "cand": 3628,
      "ders": 3629,
      "dream": 3630,
      "eas": 3631,
      "first": 3632,
      "gur": 3633,
      "ky": 3634,
      "lun": 3635,
      "latest": 3636,
      "mel": 3637,
      "mend": 3638,
      "sal": 3639,
      "source": 3640,
      "ume": 3641,
      "utiliz": 3642,
      "winding": 3643,
      "independent": 3644,
      "tice": 3645,
      "reach": 3646,
      "restor": 3647,
      "repeti": 3648,
      "erup": 3649,
      "ensu": 3650,
      "enari": 3651,
      "stored": 3652,
      "outer": 3653,
      "lete": 3654,
      "arad": 3655,
      "procra": 3656,
      "old": 3657,
      "liance": 3658,
      "lives": 3659,
      "sumed": 3660,
      "ceed": 3661,
      "tries": 3662,
      "trics": 3663,
      "confi": 3664,
      "consumed": 3665,
      "appar": 3666,
      "extre": 3667,
      "exoplanets": 3668,
      "ild": 3669,
      "mobility": 3670,
      "spear": 3671,
      "verify": 3672,
      "doing": 3673,
      "manner": 3674,
      "workshop": 3675,
      "workload": 3676,
      "volume": 3677,
      "allocation": 3678,
      "bles": 3679,
      "short": 3680,
      "transaction": 3681,
      "produced": 3682,
      "object": 3683,
      "verse": 3684,
      "desired": 3685,
      "parties": 3686,
      "party": 3687,
      "full": 3688,
      "Whoa": 3689,
      "regulates": 3690,
      "career": 3691,
      "coach": 3692,
      "cooking": 3693,
      "nova": 3694,
      "current": 3695,
      "marine": 3696,
      "strategy": 3697,
      "personality": 3698,
      "encoded": 3699,
      "subject": 3700,
      "advent": 3701,
      "customers": 3702,
      "mito": 3703,
      "mitosis": 3704,
      "designs": 3705,
      "bustion": 3706,
      "cause": 3707,
      "faces": 3708,
      "event": 3709,
      "ancing": 3710,
      "purchase": 3711,
      "saving": 3712,
      "looking": 3713,
      "natives": 3714,
      "tissue": 3715,
      "integrate": 3716,
      "constructively": 3717,
      "alternatives": 3718,
      "speak": 3719,
      "disorder": 3720,
      "lowering": 3721,
      "resolve": 3722,
      "patients": 3723,
      "ava": 3724,
      "telekinetic": 3725,
      "visualization": 3726,
      "clouds": 3727,
      "absorbed": 3728,
      "damaged": 3729,
      "shopping": 3730,
      "implementation": 3731,
      "precision": 3732,
      "oxidation": 3733,
      "reflection": 3734,
      "Develop": 3735,
      "observations": 3736,
      "reactants": 3737,
      "headed": 3738,
      "mysteries": 3739,
      "Augmented": 3740,
      "laid": 3741,
      "eukaryotic": 3742,
      "leverage": 3743,
      "cutting": 3744,
      "masterminds": 3745,
      "suggestions": 3746,
      "fertilization": 3747,
      "beneficial": 3748,
      "authorized": 3749,
      "parallel": 3750,
      "emerging": 3751,
      "agreements": 3752,
      "immutable": 3753,
      "distinct": 3754,
      "aneously": 3755,
      "scenari": 3756,
      "promptly": 3757,
      "institutions": 3758,
      "crystal": 3759,
      "lifestyle": 3760,
      "Seeking": 3761,
      "procrastination": 3762,
      "configur": 3763,
      "apparatus": 3764,
      "spearheaded": 3765,
      "workshops": 3766,
      "All": 3767,
      "Des": 3768,
      "Har": 3769,
      "Ke": 3770,
      "Mo": 3771,
      "Mat": 3772,
      "Ph": 3773,
      "Res": 3774,
      "bir": 3775,
      "core": 3776,
      "cues": 3777,
      "dal": 3778,
      "dary": 3779,
      "eating": 3780,
      "fir": 3781,
      "fly": 3782,
      "fting": 3783,
      "fall": 3784,
      "furn": 3785,
      "gestion": 3786,
      "hous": 3787,
      "ier": 3788,
      "kes": 3789,
      "killing": 3790,
      "lit": 3791,
      "liter": 3792,
      "mone": 3793,
      "nit": 3794,
      "night": 3795,
      "pap": 3796,
      "pyruvate": 3797,
      "sect": 3798,
      "tech": 3799,
      "tors": 3800,
      "zed": 3801,
      "zone": 3802,
      "inv": 3803,
      "iny": 3804,
      "inal": 3805,
      "inhi": 3806,
      "inated": 3807,
      "initely": 3808,
      "tious": 3809,
      "ondri": 3810,
      "retic": 3811,
      "rely": 3812,
      "rehab": 3813,
      "represent": 3814,
      "regeneration": 3815,
      "escap": 3816,
      "oral": 3817,
      "orph": 3818,
      "stell": 3819,
      "stable": 3820,
      "isen": 3821,
      "itch": 3822,
      "edures": 3823,
      "entang": 3824,
      "size": 3825,
      "dee": 3826,
      "chondri": 3827,
      "ford": 3828,
      "cancer": 3829,
      "vide": 3830,
      "plasts": 3831,
      "hered": 3832,
      "appe": 3833,
      "ush": 3834,
      "rix": 3835,
      "ope": 3836,
      "coming": 3837,
      "ilitation": 3838,
      "ute": 3839,
      "amy": 3840,
      "images": 3841,
      "terms": 3842,
      "cles": 3843,
      "creators": 3844,
      "ours": 3845,
      "web": 3846,
      "ortal": 3847,
      "overlay": 3848,
      "teams": 3849,
      "cyber": 3850,
      "flu": 3851,
      "cultural": 3852,
      "big": 3853,
      "biology": 3854,
      "bilities": 3855,
      "person": 3856,
      "skate": 3857,
      "variety": 3858,
      "ionic": 3859,
      "recover": 3860,
      "finances": 3861,
      "cores": 3862,
      "curren": 3863,
      "immortal": 3864,
      "profound": 3865,
      "metallic": 3866,
      "contributing": 3867,
      "calm": 3868,
      "bert": 3869,
      "ished": 3870,
      "resilient": 3871,
      "mix": 3872,
      "property": 3873,
      "accines": 3874,
      "busy": 3875,
      "balanced": 3876,
      "warming": 3877,
      "tectonic": 3878,
      "resulted": 3879,
      "central": 3880,
      "jobs": 3881,
      "talent": 3882,
      "trusted": 3883,
      "speech": 3884,
      "plasmic": 3885,
      "Ensuring": 3886,
      "highly": 3887,
      "hormone": 3888,
      "converts": 3889,
      "valued": 3890,
      "Add": 3891,
      "stimulate": 3892,
      "fron": 3893,
      "industrial": 3894,
      "regularly": 3895,
      "operation": 3896,
      "therapies": 3897,
      "detecting": 3898,
      "messages": 3899,
      "preventing": 3900,
      "Common": 3901,
      "gamet": 3902,
      "damage": 3903,
      "inspire": 3904,
      "oroplasts": 3905,
      "everyday": 3906,
      "drones": 3907,
      "opinions": 3908,
      "failure": 3909,
      "accurate": 3910,
      "Albert": 3911,
      "frequ": 3912,
      "embrace": 3913,
      "voting": 3914,
      "helix": 3915,
      "mysterious": 3916,
      "philosoph": 3917,
      "myself": 3918,
      "game": 3919,
      "years": 3920,
      "endoplasmic": 3921,
      "chlorophyll": 3922,
      "observe": 3923,
      "fulfilling": 3924,
      "biomass": 3925,
      "drawing": 3926,
      "procedures": 3927,
      "sedimentary": 3928,
      "makers": 3929,
      "civilizations": 3930,
      "maximize": 3931,
      "policymakers": 3932,
      "Chemical": 3933,
      "Embr": 3934,
      "kindness": 3935,
      "milest": 3936,
      "requests": 3937,
      "legendary": 3938,
      "propel": 3939,
      "degradation": 3940,
      "Definitely": 3941,
      "lithosphere": 3942,
      "Developing": 3943,
      "Matrix": 3944,
      "furniture": 3945,
      "reticulum": 3946,
      "rehabilitation": 3947,
      "stellar": 3948,
      "entanglement": 3949,
      ",'": 3950,
      "DP": 3951,
      "Eisen": 3952,
      "LP": 3953,
      "Me": 3954,
      "Mi": 3955,
      "NS": 3956,
      "NLP": 3957,
      "To": 3958,
      "Yo": 3959,
      "bits": 3960,
      "cau": 3961,
      "dat": 3962,
      "dating": 3963,
      "gap": 3964,
      "hours": 3965,
      "iat": 3966,
      "itive": 3967,
      "lds": 3968,
      "lack": 3969,
      "nour": 3970,
      "ptical": 3971,
      "trou": 3972,
      "templ": 3973,
      "turb": 3974,
      "uish": 3975,
      "vin": 3976,
      "ware": 3977,
      "ink": 3978,
      "ints": 3979,
      "inner": 3980,
      "insul": 3981,
      "thal": 3982,
      "eras": 3983,
      "envelop": 3984,
      "inguish": 3985,
      "attitude": 3986,
      "row": 3987,
      "root": 3988,
      "stri": 3989,
      "store": 3990,
      "oud": 3991,
      "towards": 3992,
      "accept": 3993,
      "item": 3994,
      "proof": 3995,
      "proceed": 3996,
      "lides": 3997,
      "deb": 3998,
      "chr": 3999,
      "check": 4000,
      "sus": 4001,
      "emp": 4002,
      "vious": 4003,
      "tration": 4004,
      "plen": 4005,
      "unauthorized": 4006,
      "consci": 4007,
      "abnormal": 4008,
      "apor": 4009,
      "apping": 4010,
      "iles": 4011,
      "metrics": 4012,
      "adop": 4013,
      "implants": 4014,
      "elliptical": 4015,
      "tured": 4016,
      "tein": 4017,
      "ologist": 4018,
      "worlds": 4019,
      "volum": 4020,
      "ourse": 4021,
      "efs": 4022,
      "veleng": 4023,
      "technological": 4024,
      "virus": 4025,
      "rather": 4026,
      "itself": 4027,
      "inclusion": 4028,
      "geology": 4029,
      "bla": 4030,
      "interaction": 4031,
      "internal": 4032,
      "sors": 4033,
      "respecting": 4034,
      "print": 4035,
      "discourse": 4036,
      "previous": 4037,
      "contact": 4038,
      "organizing": 4039,
      "throughs": 4040,
      "structural": 4041,
      "flo": 4042,
      "flows": 4043,
      "ryption": 4044,
      "trigg": 4045,
      "poses": 4046,
      "possi": 4047,
      "hower": 4048,
      "variability": 4049,
      "taste": 4050,
      "noble": 4051,
      "Maybe": 4052,
      "surance": 4053,
      "trail": 4054,
      "finite": 4055,
      "cook": 4056,
      "neurological": 4057,
      "actionable": 4058,
      "whole": 4059,
      "profiles": 4060,
      "cleav": 4061,
      "distinguish": 4062,
      "encryption": 4063,
      "signaling": 4064,
      "pleas": 4065,
      "sensitive": 4066,
      "numbers": 4067,
      "professionalism": 4068,
      "blocks": 4069,
      "automatic": 4070,
      "supernova": 4071,
      "forest": 4072,
      "adaptive": 4073,
      "casts": 4074,
      "shaped": 4075,
      "neurode": 4076,
      "adaptability": 4077,
      "nucleo": 4078,
      "magical": 4079,
      "musical": 4080,
      "waveleng": 4081,
      "qualities": 4082,
      "boundary": 4083,
      "pivot": 4084,
      "donate": 4085,
      "bloodstream": 4086,
      "employees": 4087,
      "minimize": 4088,
      "electro": 4089,
      "electoral": 4090,
      "researchers": 4091,
      "places": 4092,
      "habits": 4093,
      "navigating": 4094,
      "brid": 4095,
      "confident": 4096,
      "kends": 4097,
      "Protein": 4098,
      "catalyzing": 4099,
      "influenced": 4100,
      "disrupt": 4101,
      "connected": 4102,
      "okay": 4103,
      "investment": 4104,
      "investments": 4105,
      "delivery": 4106,
      "equations": 4107,
      "accuracy": 4108,
      "Cloud": 4109,
      "receive": 4110,
      "surroundings": 4111,
      "helium": 4112,
      "group": 4113,
      "groups": 4114,
      "mystical": 4115,
      "accelerate": 4116,
      "assemble": 4117,
      "diagnostic": 4118,
      "manipulating": 4119,
      "rainb": 4120,
      "choices": 4121,
      "infections": 4122,
      "counsel": 4123,
      "barri": 4124,
      "Potter": 4125,
      "meteor": 4126,
      "consult": 4127,
      "meaningful": 4128,
      "deployment": 4129,
      "Practicing": 4130,
      "repetition": 4131,
      "mitochondri": 4132,
      "scenarios": 4133,
      "configuration": 4134,
      "Harry": 4135,
      "deeper": 4136,
      "heredity": 4137,
      "Addressing": 4138,
      "milestones": 4139,
      "Eisenhower": 4140,
      "iatric": 4141,
      "nourish": 4142,
      "turbines": 4143,
      "thalam": 4144,
      "items": 4145,
      "conscious": 4146,
      "volumes": 4147,
      "cleavage": 4148,
      "pivotal": 4149,
      "Epi": 4150,
      "Fran": 4151,
      "FADH": 4152,
      "Mend": 4153,
      "Mars": 4154,
      "Nat": 4155,
      "Pho": 4156,
      "Technology": 4157,
      "Tran": 4158,
      "With": 4159,
      "aur": 4160,
      "astr": 4161,
      "atives": 4162,
      "bing": 4163,
      "got": 4164,
      "hon": 4165,
      "iers": 4166,
      "igh": 4167,
      "kines": 4168,
      "pen": 4169,
      "som": 4170,
      "tex": 4171,
      "tend": 4172,
      "text": 4173,
      "uri": 4174,
      "vity": 4175,
      "wton": 4176,
      "ying": 4177,
      "yonic": 4178,
      "insurance": 4179,
      "tiz": 4180,
      "retail": 4181,
      "requiring": 4182,
      "replen": 4183,
      "enzy": 4184,
      "inger": 4185,
      "alte": 4186,
      "roo": 4187,
      "tomation": 4188,
      "acking": 4189,
      "acqui": 4190,
      "acade": 4191,
      "ective": 4192,
      "proli": 4193,
      "olf": 4194,
      "plates": 4195,
      "etal": 4196,
      "reskilling": 4197,
      "congestion": 4198,
      "apse": 4199,
      "dily": 4200,
      "rimin": 4201,
      "compromise": 4202,
      "combustion": 4203,
      "exchange": 4204,
      "urning": 4205,
      "uctu": 4206,
      "spring": 4207,
      "genom": 4208,
      "osine": 4209,
      "otype": 4210,
      "angels": 4211,
      "strands": 4212,
      "providers": 4213,
      "mantle": 4214,
      "idate": 4215,
      "seam": 4216,
      "compassion": 4217,
      "phr": 4218,
      "geome": 4219,
      "citiz": 4220,
      "hiking": 4221,
      "oster": 4222,
      "sional": 4223,
      "showing": 4224,
      "interdiscipl": 4225,
      "interior": 4226,
      "interfaces": 4227,
      "obso": 4228,
      "discrimin": 4229,
      "community": 4230,
      "prepar": 4231,
      "ownership": 4232,
      "fluctu": 4233,
      "feration": 4234,
      "minal": 4235,
      "upd": 4236,
      "points": 4237,
      "experimental": 4238,
      "brains": 4239,
      "fair": 4240,
      "father": 4241,
      "final": 4242,
      "imposter": 4243,
      "criminal": 4244,
      "physic": 4245,
      "fying": 4246,
      "innovations": 4247,
      "minded": 4248,
      "metal": 4249,
      "growing": 4250,
      "substr": 4251,
      "subjects": 4252,
      "synthesizing": 4253,
      "osystems": 4254,
      "customized": 4255,
      "releases": 4256,
      "superhuman": 4257,
      "inflam": 4258,
      "continents": 4259,
      "successful": 4260,
      "Does": 4261,
      "controlled": 4262,
      "fuel": 4263,
      "muscles": 4264,
      "powerful": 4265,
      "journal": 4266,
      "summon": 4267,
      "openness": 4268,
      "Newton": 4269,
      "protecting": 4270,
      "secretion": 4271,
      "revolutionizing": 4272,
      "higher": 4273,
      "breakthroughs": 4274,
      "benefit": 4275,
      "tempor": 4276,
      "forcement": 4277,
      "conversion": 4278,
      "cosmos": 4279,
      "front": 4280,
      "folding": 4281,
      "hydroelectric": 4282,
      "psychiatric": 4283,
      "confidential": 4284,
      "clarification": 4285,
      "effort": 4286,
      "metabolic": 4287,
      "replicate": 4288,
      "cleaning": 4289,
      "Prot": 4290,
      "oceans": 4291,
      "absorbs": 4292,
      "expected": 4293,
      "gaming": 4294,
      "simpler": 4295,
      "describe": 4296,
      "rewards": 4297,
      "harnessing": 4298,
      "hole": 4299,
      "remains": 4300,
      "coordination": 4301,
      "characterized": 4302,
      "resistant": 4303,
      "mentorship": 4304,
      "wonderful": 4305,
      "ximately": 4306,
      "lining": 4307,
      "organizational": 4308,
      "Plate": 4309,
      "intuitive": 4310,
      "polarization": 4311,
      "explosi": 4312,
      "Automation": 4313,
      "competitive": 4314,
      "competitiveness": 4315,
      "adjusting": 4316,
      "week": 4317,
      "microwave": 4318,
      "grid": 4319,
      "toxins": 4320,
      "eggs": 4321,
      "nanotechnology": 4322,
      "Ecosystems": 4323,
      "companies": 4324,
      "curiosity": 4325,
      "humility": 4326,
      "sugars": 4327,
      "directly": 4328,
      "referring": 4329,
      "adenosine": 4330,
      "collapse": 4331,
      "distribut": 4332,
      "circulatory": 4333,
      "approximately": 4334,
      "succession": 4335,
      "introducing": 4336,
      "clients": 4337,
      "fireworks": 4338,
      "Describe": 4339,
      "immortality": 4340,
      "frontal": 4341,
      "philosophical": 4342,
      "Meiosis": 4343,
      "datas": 4344,
      "envelope": 4345,
      "thalamus": 4346,
      "FADH2": 4347,
      "Mendel": 4348,
      "Natural": 4349,
      "Photosynthesis": 4350,
      "altered": 4351,
      "acquire": 4352,
      "academic": 4353,
      "proliferation": 4354,
      "interdisciplinary": 4355,
      "obsolete": 4356,
      "BC": 4357,
      "Con": 4358,
      "Cas": 4359,
      "Ethical": 4360,
      "For": 4361,
      "His": 4362,
      "Mu": 4363,
      "Men": 4364,
      "MAR": 4365,
      "Nan": 4366,
      "Nuc": 4367,
      "Night": 4368,
      "Rings": 4369,
      "Self": 4370,
      "SMAR": 4371,
      "Tre": 4372,
      "Troy": 4373,
      "aud": 4374,
      "bb": 4375,
      "bly": 4376,
      "base": 4377,
      "bhal": 4378,
      "bath": 4379,
      "cord": 4380,
      "cock": 4381,
      "fts": 4382,
      "fau": 4383,
      "fru": 4384,
      "finger": 4385,
      "ked": 4386,
      "mer": 4387,
      "mes": 4388,
      "mir": 4389,
      "match": 4390,
      "ners": 4391,
      "nap": 4392,
      "oes": 4393,
      "oeconomic": 4394,
      "ptive": 4395,
      "pend": 4396,
      "pitation": 4397,
      "pale": 4398,
      "ram": 4399,
      "sab": 4400,
      "scre": 4401,
      "saying": 4402,
      "tack": 4403,
      "uries": 4404,
      "vo": 4405,
      "vation": 4406,
      "vapor": 4407,
      "wel": 4408,
      "wond": 4409,
      "wler": 4410,
      "zes": 4411,
      "inform": 4412,
      "inforcement": 4413,
      "anes": 4414,
      "ancy": 4415,
      "tide": 4416,
      "tight": 4417,
      "rer": 4418,
      "reten": 4419,
      "remn": 4420,
      "represents": 4421,
      "thy": 4422,
      "alind": 4423,
      "theories": 4424,
      "stun": 4425,
      "stres": 4426,
      "stage": 4427,
      "aciers": 4428,
      "lies": 4429,
      "lipi": 4430,
      "depression": 4431,
      "child": 4432,
      "cet": 4433,
      "unch": 4434,
      "reson": 4435,
      "constant": 4436,
      "condens": 4437,
      "heav": 4438,
      "ayer": 4439,
      "ditive": 4440,
      "divis": 4441,
      "oppos": 4442,
      "ither": 4443,
      "exter": 4444,
      "ilar": 4445,
      "moting": 4446,
      "ticides": 4447,
      "ambhal": 4448,
      "additive": 4449,
      "spont": 4450,
      "spinal": 4451,
      "irical": 4452,
      "osmosis": 4453,
      "oting": 4454,
      "beings": 4455,
      "near": 4456,
      "elling": 4457,
      "tivating": 4458,
      "sister": 4459,
      "clin": 4460,
      "seg": 4461,
      "disabilities": 4462,
      "induc": 4463,
      "weap": 4464,
      "weak": 4465,
      "alleles": 4466,
      "brand": 4467,
      "blue": 4468,
      "member": 4469,
      "prayer": 4470,
      "contex": 4471,
      "expert": 4472,
      "experts": 4473,
      "perer": 4474,
      "serve": 4475,
      "umin": 4476,
      "umulation": 4477,
      "NADP": 4478,
      "typing": 4479,
      "everance": 4480,
      "bias": 4481,
      "bike": 4482,
      "perseverance": 4483,
      "augment": 4484,
      "recommendation": 4485,
      "takes": 4486,
      "really": 4487,
      "electronic": 4488,
      "fake": 4489,
      "cepti": 4490,
      "bond": 4491,
      "wellness": 4492,
      "fighting": 4493,
      "background": 4494,
      "computational": 4495,
      "pests": 4496,
      "onging": 4497,
      "hydr": 4498,
      "contributes": 4499,
      "hands": 4500,
      "carries": 4501,
      "general": 4502,
      "subatomic": 4503,
      "tension": 4504,
      "glands": 4505,
      "enses": 4506,
      "customization": 4507,
      "designed": 4508,
      "climates": 4509,
      "investi": 4510,
      "increases": 4511,
      "neuroimaging": 4512,
      "Stem": 4513,
      "universes": 4514,
      "connecting": 4515,
      "missions": 4516,
      "genesis": 4517,
      "rapport": 4518,
      "give": 4519,
      "openly": 4520,
      "listen": 4521,
      "resolving": 4522,
      "concentrations": 4523,
      "manufac": 4524,
      "groundbreaking": 4525,
      "encourages": 4526,
      "simulate": 4527,
      "assessing": 4528,
      "storytell": 4529,
      "Adv": 4530,
      "Genetics": 4531,
      "Webb": 4532,
      "stimulating": 4533,
      "telepathy": 4534,
      "bril": 4535,
      "agricultural": 4536,
      "scales": 4537,
      "respiratory": 4538,
      "strength": 4539,
      "Promoting": 4540,
      "animal": 4541,
      "precipitation": 4542,
      "neutral": 4543,
      "monitor": 4544,
      "turned": 4545,
      "absorb": 4546,
      "crawler": 4547,
      "underground": 4548,
      "clarifying": 4549,
      "moments": 4550,
      "cameras": 4551,
      "robots": 4552,
      "amounts": 4553,
      "disruptions": 4554,
      "classify": 4555,
      "targeted": 4556,
      "formulating": 4557,
      "beli": 4558,
      "belonging": 4559,
      "securely": 4560,
      "instruments": 4561,
      "pathogen": 4562,
      "habitats": 4563,
      "intervention": 4564,
      "mediate": 4565,
      "tampering": 4566,
      "enesis": 4567,
      "streamline": 4568,
      "reflect": 4569,
      "increasingly": 4570,
      "embracing": 4571,
      "connectivity": 4572,
      "observed": 4573,
      "atids": 4574,
      "reactant": 4575,
      "undergoes": 4576,
      "modulate": 4577,
      "participating": 4578,
      "emitted": 4579,
      "philosophy": 4580,
      "eutic": 4581,
      "leveraging": 4582,
      "keeping": 4583,
      "smoothly": 4584,
      "filter": 4585,
      "ghosts": 4586,
      "weekends": 4587,
      "assertiveness": 4588,
      "chloroplasts": 4589,
      "foot": 4590,
      "contracts": 4591,
      "socioeconomic": 4592,
      "mountains": 4593,
      "walk": 4594,
      "error": 4595,
      "consent": 4596,
      "conventional": 4597,
      "chromatids": 4598,
      "diversi": 4599,
      "outdoors": 4600,
      "affecting": 4601,
      "fantastic": 4602,
      "Shambhal": 4603,
      "machines": 4604,
      "scans": 4605,
      "semi": 4606,
      "shapeshi": 4607,
      "shifts": 4608,
      "style": 4609,
      "whisperer": 4610,
      "boxes": 4611,
      "budgeting": 4612,
      "progressive": 4613,
      "accomplishments": 4614,
      "restoring": 4615,
      "Kepler": 4616,
      "firm": 4617,
      "litmus": 4618,
      "paper": 4619,
      "inhibit": 4620,
      "skateboard": 4621,
      "currency": 4622,
      "gametes": 4623,
      "propelled": 4624,
      "Mitosis": 4625,
      "caught": 4626,
      "suscepti": 4627,
      "empirical": 4628,
      "trailbla": 4629,
      "pleasure": 4630,
      "wavelengths": 4631,
      "mitochondria": 4632,
      "consciousness": 4633,
      "seamless": 4634,
      "preparation": 4635,
      "fluctuations": 4636,
      "substrates": 4637,
      "explosives": 4638,
      "distributed": 4639,
      "datasets": 4640,
      "Cas9": 4641,
      "Nuclear": 4642,
      "Nightcrawler": 4643,
      "SMART": 4644,
      "Trek": 4645,
      "cocktail": 4646,
      "faucet": 4647,
      "mirr": 4648,
      "sabot": 4649,
      "wonders": 4650,
      "retention": 4651,
      "stunts": 4652,
      "stressors": 4653,
      "lipids": 4654,
      "heavy": 4655,
      "divisions": 4656,
      "opposite": 4657,
      "external": 4658,
      "NADPH": 4659,
      "storytelling": 4660,
      "Shambhala": 4661,
      "Bo": 4662,
      "CO": 4663,
      "EG": 4664,
      "Farad": 4665,
      "Max": 4666,
      "Nothing": 4667,
      "Ox": 4668,
      "PE": 4669,
      "Psych": 4670,
      "Sci": 4671,
      "Smart": 4672,
      "Taking": 4673,
      "aac": 4674,
      "aid": 4675,
      "bt": 4676,
      "bark": 4677,
      "case": 4678,
      "fMRI": 4679,
      "gins": 4680,
      "gold": 4681,
      "ian": 4682,
      "jus": 4683,
      "mol": 4684,
      "ov": 4685,
      "odiversity": 4686,
      "ozone": 4687,
      "run": 4688,
      "ui": 4689,
      "uti": 4690,
      "vic": 4691,
      "vable": 4692,
      "ining": 4693,
      "infect": 4694,
      "intric": 4695,
      "anormal": 4696,
      "replace": 4697,
      "reviews": 4698,
      "rephr": 4699,
      "eral": 4700,
      "ensor": 4701,
      "estive": 4702,
      "orches": 4703,
      "atin": 4704,
      "atell": 4705,
      "room": 4706,
      "sto": 4707,
      "ictive": 4708,
      "arti": 4709,
      "arise": 4710,
      "itable": 4711,
      "proactively": 4712,
      "omacy": 4713,
      "liqu": 4714,
      "lify": 4715,
      "libri": 4716,
      "sight": 4717,
      "via": 4718,
      "train": 4719,
      "plum": 4720,
      "plomacy": 4721,
      "unds": 4722,
      "unra": 4723,
      "consequences": 4724,
      "heavi": 4725,
      "diplomacy": 4726,
      "agers": 4727,
      "rivers": 4728,
      "optical": 4729,
      "exchanges": 4730,
      "exten": 4731,
      "meetings": 4732,
      "ogene": 4733,
      "amorph": 4734,
      "spher": 4735,
      "otting": 4736,
      "ocate": 4737,
      "feature": 4738,
      "Inter": 4739,
      "forming": 4740,
      "creas": 4741,
      "managers": 4742,
      "idents": 4743,
      "seques": 4744,
      "entire": 4745,
      "weigh": 4746,
      "veling": 4747,
      "rati": 4748,
      "geoph": 4749,
      "produces": 4750,
      "blog": 4751,
      "interface": 4752,
      "obic": 4753,
      "ysical": 4754,
      "memories": 4755,
      "pregn": 4756,
      "prefrontal": 4757,
      "paign": 4758,
      "boards": 4759,
      "bodily": 4760,
      "flowing": 4761,
      "trips": 4762,
      "triphosphate": 4763,
      "communicator": 4764,
      "cultures": 4765,
      "pose": 4766,
      "asses": 4767,
      "acknow": 4768,
      "paranormal": 4769,
      "recru": 4770,
      "deco": 4771,
      "decline": 4772,
      "breeding": 4773,
      "leader": 4774,
      "methane": 4775,
      "strategic": 4776,
      "pesticides": 4777,
      "astero": 4778,
      "affirm": 4779,
      "laboratory": 4780,
      "achievable": 4781,
      "maintains": 4782,
      "capture": 4783,
      "capturing": 4784,
      "signs": 4785,
      "limit": 4786,
      "limited": 4787,
      "generations": 4788,
      "oxidi": 4789,
      "sensing": 4790,
      "divided": 4791,
      "advant": 4792,
      "promotions": 4793,
      "guided": 4794,
      "customize": 4795,
      "cracy": 4796,
      "released": 4797,
      "supernatural": 4798,
      "accumulation": 4799,
      "forever": 4800,
      "Isaac": 4801,
      "imagination": 4802,
      "tailored": 4803,
      "influences": 4804,
      "transmitted": 4805,
      "sites": 4806,
      "nutritious": 4807,
      "misinformation": 4808,
      "construct": 4809,
      "biotic": 4810,
      "consisting": 4811,
      "altering": 4812,
      "alterations": 4813,
      "differences": 4814,
      "employable": 4815,
      "revolutionized": 4816,
      "horiz": 4817,
      "minimal": 4818,
      "repairs": 4819,
      "discoveries": 4820,
      "ropy": 4821,
      "Collabor": 4822,
      "Adap": 4823,
      "cosm": 4824,
      "navigation": 4825,
      "follow": 4826,
      "offspring": 4827,
      "correc": 4828,
      "graphy": 4829,
      "write": 4830,
      "supports": 4831,
      "Biometric": 4832,
      "Biodiversity": 4833,
      "psychologist": 4834,
      "published": 4835,
      "determination": 4836,
      "ptoms": 4837,
      "scalability": 4838,
      "atmospher": 4839,
      "equilibri": 4840,
      "recognize": 4841,
      "190": 4842,
      "statis": 4843,
      "struggling": 4844,
      "overwhelm": 4845,
      "Neurosci": 4846,
      "simple": 4847,
      "similar": 4848,
      "campaign": 4849,
      "reliability": 4850,
      "device": 4851,
      "transcribed": 4852,
      "direction": 4853,
      "disruptive": 4854,
      "hooting": 4855,
      "instrument": 4856,
      "remaining": 4857,
      "mutually": 4858,
      "doubt": 4859,
      "logistics": 4860,
      "destroy": 4861,
      "passes": 4862,
      "burning": 4863,
      "evenness": 4864,
      "momentum": 4865,
      "Plants": 4866,
      "calculated": 4867,
      "suggesting": 4868,
      "griev": 4869,
      "attractions": 4870,
      "fulfill": 4871,
      "arrangement": 4872,
      "contraction": 4873,
      "density": 4874,
      "inputs": 4875,
      "errors": 4876,
      "ography": 4877,
      "symptoms": 4878,
      "differentiation": 4879,
      "garden": 4880,
      "democracy": 4881,
      "pioneers": 4882,
      "amplify": 4883,
      "spaced": 4884,
      "accordingly": 4885,
      "schedules": 4886,
      "fasc": 4887,
      "pancreas": 4888,
      "reshaping": 4889,
      "counterfe": 4890,
      "mathematical": 4891,
      "Species": 4892,
      "richness": 4893,
      "slope": 4894,
      "touch": 4895,
      "abundant": 4896,
      "dimensional": 4897,
      "movies": 4898,
      "roscopy": 4899,
      "brightness": 4900,
      "eruptions": 4901,
      "bleshooting": 4902,
      "coaching": 4903,
      "adventure": 4904,
      "literacy": 4905,
      "videos": 4906,
      "appear": 4907,
      "talented": 4908,
      "troubleshooting": 4909,
      "template": 4910,
      "possibilities": 4911,
      "neurodegenerative": 4912,
      "nucleotides": 4913,
      "enzyme": 4914,
      "roots": 4915,
      "genomic": 4916,
      "citizens": 4917,
      "confidentiality": 4918,
      "fruition": 4919,
      "screen": 4920,
      "tackle": 4921,
      "welcome": 4922,
      "manufacture": 4923,
      "CO2": 4924,
      "Faraday": 4925,
      "Psychologists": 4926,
      "Scientists": 4927,
      "justice": 4928,
      "intricate": 4929,
      "rephrase": 4930,
      "ensory": 4931,
      "atellite": 4932,
      "liquid": 4933,
      "unraveling": 4934,
      "heavier": 4935,
      "ogeneous": 4936,
      "sequestration": 4937,
      "geophysical": 4938,
      "pregnancy": 4939,
      "recruit": 4940,
      "affirmations": 4941,
      "atmospheric": 4942,
      "equilibrium": 4943,
      "campaigns": 4944,
      "..": 4945,
      "13": 4946,
      "Aut": 4947,
      "Cul": 4948,
      "Dar": 4949,
      "ER": 4950,
      "II": 4951,
      "Imag": 4952,
      "Jup": 4953,
      "Kre": 4954,
      "Robo": 4955,
      "Tr": 4956,
      "Tot": 4957,
      "aves": 4958,
      "ban": 4959,
      "cing": 4960,
      "cas": 4961,
      "cations": 4962,
      "eese": 4963,
      "ff": 4964,
      "fence": 4965,
      "ged": 4966,
      "gical": 4967,
      "gdal": 4968,
      "hang": 4969,
      "lumin": 4970,
      "pay": 4971,
      "pod": 4972,
      "rhy": 4973,
      "she": 4974,
      "senti": 4975,
      "satellite": 4976,
      "trop": 4977,
      "taneously": 4978,
      "ums": 4979,
      "va": 4980,
      "wall": 4981,
      "wsing": 4982,
      "ynap": 4983,
      "zers": 4984,
      "antic": 4985,
      "tire": 4986,
      "tifications": 4987,
      "oning": 4988,
      "ongoing": 4989,
      "redo": 4990,
      "remind": 4991,
      "reproduce": 4992,
      "recycling": 4993,
      "reju": 4994,
      "reverse": 4995,
      "ery": 4996,
      "encomp": 4997,
      "enge": 4998,
      "enforce": 4999,
      "alle": 5000,
      "alities": 5001,
      "stack": 5002,
      "elle": 5003,
      "too": 5004,
      "toler": 5005,
      "icies": 5006,
      "iciting": 5007,
      "lem": 5008,
      "leis": 5009,
      "leaking": 5010,
      "asive": 5011,
      "acety": 5012,
      "acquiring": 5013,
      "itory": 5014,
      "ently": 5015,
      "olocation": 5016,
      "lik": 5017,
      "liability": 5018,
      "sides": 5019,
      "sibility": 5020,
      "sivity": 5021,
      "death": 5022,
      "depart": 5023,
      "ching": 5024,
      "cheese": 5025,
      "veget": 5026,
      "fort": 5027,
      "emonic": 5028,
      "embark": 5029,
      "unexpected": 5030,
      "eters": 5031,
      "apart": 5032,
      "menting": 5033,
      "agon": 5034,
      "agility": 5035,
      "cessive": 5036,
      "ultim": 5037,
      "exother": 5038,
      "utter": 5039,
      "utations": 5040,
      "ogenesis": 5041,
      "spect": 5042,
      "spread": 5043,
      "perme": 5044,
      "formations": 5045,
      "closed": 5046,
      "helped": 5047,
      "indices": 5048,
      "inequalities": 5049,
      "eful": 5050,
      "veloc": 5051,
      "compliance": 5052,
      "allocate": 5053,
      "something": 5054,
      "thermic": 5055,
      "thermal": 5056,
      "bran": 5057,
      "pheral": 5058,
      "inclusivity": 5059,
      "soliciting": 5060,
      "engines": 5061,
      "interacting": 5062,
      "illance": 5063,
      "serves": 5064,
      "organelle": 5065,
      "boiling": 5066,
      "boarding": 5067,
      "regard": 5068,
      "genetically": 5069,
      "fermentation": 5070,
      "effectiveness": 5071,
      "diffusion": 5072,
      "park": 5073,
      "paras": 5074,
      "experienc": 5075,
      "developmental": 5076,
      "novel": 5077,
      "basis": 5078,
      "basics": 5079,
      "starting": 5080,
      "recur": 5081,
      "decor": 5082,
      "surgical": 5083,
      "trait": 5084,
      "Things": 5085,
      "regulated": 5086,
      "cool": 5087,
      "origins": 5088,
      "imming": 5089,
      "immunity": 5090,
      "immense": 5091,
      "lightweight": 5092,
      "hyper": 5093,
      "hash": 5094,
      "second": 5095,
      "afford": 5096,
      "positions": 5097,
      "tree": 5098,
      "valle": 5099,
      "factory": 5100,
      "generated": 5101,
      "order": 5102,
      "digestive": 5103,
      "poles": 5104,
      "inside": 5105,
      "subsurface": 5106,
      "virtually": 5107,
      "expan": 5108,
      "rise": 5109,
      "stories": 5110,
      "challenge": 5111,
      "charges": 5112,
      "accidents": 5113,
      "picnic": 5114,
      "stewards": 5115,
      "imagery": 5116,
      "successes": 5117,
      "modeling": 5118,
      "tailor": 5119,
      "nutrition": 5120,
      "radiometric": 5121,
      "integration": 5122,
      "photo": 5123,
      "given": 5124,
      "protection": 5125,
      "Eng": 5126,
      "simulation": 5127,
      "simultaneously": 5128,
      "converted": 5129,
      "lessons": 5130,
      "Geological": 5131,
      "engineers": 5132,
      "facilitates": 5133,
      "psychologists": 5134,
      "therapeutic": 5135,
      "demands": 5136,
      "painting": 5137,
      "oxygenated": 5138,
      "foundational": 5139,
      "landslides": 5140,
      "continuously": 5141,
      "peripheral": 5142,
      "strengths": 5143,
      "browsing": 5144,
      "course": 5145,
      "germ": 5146,
      "Applications": 5147,
      "animations": 5148,
      "catalyst": 5149,
      "containing": 5150,
      "rocky": 5151,
      "gamma": 5152,
      "camping": 5153,
      "inspires": 5154,
      "conduct": 5155,
      "diagnose": 5156,
      "transparently": 5157,
      "targets": 5158,
      "trying": 5159,
      "formulated": 5160,
      "originate": 5161,
      "originated": 5162,
      "delivering": 5163,
      "separates": 5164,
      "coordinate": 5165,
      "receives": 5166,
      "classes": 5167,
      "hazard": 5168,
      "messenger": 5169,
      "surveillance": 5170,
      "inherited": 5171,
      "modalities": 5172,
      "participate": 5173,
      "answer": 5174,
      "launch": 5175,
      "emitting": 5176,
      "antibodies": 5177,
      "orbitals": 5178,
      "objective": 5179,
      "assembly": 5180,
      "endothermic": 5181,
      "assertive": 5182,
      "meeting": 5183,
      "domains": 5184,
      "attraction": 5185,
      "roads": 5186,
      "safegu": 5187,
      "swimming": 5188,
      "orbits": 5189,
      "arrangements": 5190,
      "mountain": 5191,
      "walking": 5192,
      "expanding": 5193,
      "gardening": 5194,
      "conveni": 5195,
      "companions": 5196,
      "colonize": 5197,
      "curious": 5198,
      "mnemonic": 5199,
      "prosthe": 5200,
      "chromatin": 5201,
      "spaces": 5202,
      "outdoor": 5203,
      "survive": 5204,
      "negotiating": 5205,
      "commitments": 5206,
      "scheduling": 5207,
      "vulnerabilities": 5208,
      "Covalent": 5209,
      "Reg": 5210,
      "governance": 5211,
      "prototyping": 5212,
      "aerobic": 5213,
      "watching": 5214,
      "robust": 5215,
      "eliminating": 5216,
      "dietary": 5217,
      "disaster": 5218,
      "epigenetic": 5219,
      "avoiding": 5220,
      "incorporate": 5221,
      "billion": 5222,
      "melting": 5223,
      "mendous": 5224,
      "utilized": 5225,
      "ensured": 5226,
      "Moon": 5227,
      "Philosop": 5228,
      "houses": 5229,
      "nitrogen": 5230,
      "sectors": 5231,
      "amygdal": 5232,
      "websites": 5233,
      "frequency": 5234,
      "Embracing": 5235,
      "insulin": 5236,
      "honest": 5237,
      "inflammation": 5238,
      "temporal": 5239,
      "clinical": 5240,
      "trailblazers": 5241,
      "PET": 5242,
      "orchestr": 5243,
      "Adapting": 5244,
      "fascinating": 5245,
      "recruitment": 5246,
      "Autonomous": 5247,
      "Cultivating": 5248,
      "Darwin": 5249,
      "Imagine": 5250,
      "Jupiter": 5251,
      "Krebs": 5252,
      "Robotics": 5253,
      "Totally": 5254,
      "rhyth": 5255,
      "ynaptic": 5256,
      "redox": 5257,
      "rejuven": 5258,
      "allevi": 5259,
      "leisure": 5260,
      "departments": 5261,
      "ultimately": 5262,
      "exothermic": 5263,
      "regardless": 5264,
      "stewardship": 5265,
      "amygdala": 5266,
      "00": 5267,
      "Are": 5268,
      "ABC": 5269,
      "Clim": 5270,
      "Char": 5271,
      "CNS": 5272,
      "DE": 5273,
      "Dr": 5274,
      "Dark": 5275,
      "Fe": 5276,
      "Hy": 5277,
      "If": 5278,
      "List": 5279,
      "Lavo": 5280,
      "ML": 5281,
      "Med": 5282,
      "Mil": 5283,
      "Miner": 5284,
      "Os": 5285,
      "Park": 5286,
      "Pyruvate": 5287,
      "Sol": 5288,
      "Stu": 5289,
      "Than": 5290,
      "Way": 5291,
      "aqu": 5292,
      "ahead": 5293,
      "bab": 5294,
      "bot": 5295,
      "bind": 5296,
      "batter": 5297,
      "bicy": 5298,
      "categ": 5299,
      "casing": 5300,
      "eties": 5301,
      "evalu": 5302,
      "fount": 5303,
      "gs": 5304,
      "gut": 5305,
      "hers": 5306,
      "hust": 5307,
      "hack": 5308,
      "hacks": 5309,
      "ib": 5310,
      "kid": 5311,
      "kali": 5312,
      "lat": 5313,
      "lone": 5314,
      "mely": 5315,
      "milit": 5316,
      "ole": 5317,
      "oks": 5318,
      "poc": 5319,
      "pum": 5320,
      "pack": 5321,
      "pest": 5322,
      "push": 5323,
      "ptide": 5324,
      "sin": 5325,
      "sad": 5326,
      "sence": 5327,
      "slow": 5328,
      "turning": 5329,
      "uth": 5330,
      "usu": 5331,
      "uity": 5332,
      "vac": 5333,
      "vess": 5334,
      "vaccines": 5335,
      "inaccessible": 5336,
      "ano": 5337,
      "anatom": 5338,
      "anything": 5339,
      "til": 5340,
      "onin": 5341,
      "once": 5342,
      "onaut": 5343,
      "reas": 5344,
      "reactivity": 5345,
      "return": 5346,
      "relying": 5347,
      "reproductive": 5348,
      "recombination": 5349,
      "reinforcement": 5350,
      "renegotiating": 5351,
      "erk": 5352,
      "enuity": 5353,
      "ester": 5354,
      "escal": 5355,
      "ingenuity": 5356,
      "orize": 5357,
      "alco": 5358,
      "already": 5359,
      "stom": 5360,
      "stone": 5361,
      "elet": 5362,
      "elong": 5363,
      "ough": 5364,
      "icill": 5365,
      "ising": 5366,
      "isier": 5367,
      "itar": 5368,
      "propor": 5369,
      "lighting": 5370,
      "depic": 5371,
      "deforest": 5372,
      "trading": 5373,
      "ploid": 5374,
      "unit": 5375,
      "heard": 5376,
      "absence": 5377,
      "agend": 5378,
      "useful": 5379,
      "ops": 5380,
      "opam": 5381,
      "comet": 5382,
      "ulses": 5383,
      "exhi": 5384,
      "extra": 5385,
      "urons": 5386,
      "means": 5387,
      "additional": 5388,
      "spo": 5389,
      "spr": 5390,
      "spark": 5391,
      "quick": 5392,
      "gens": 5393,
      "neys": 5394,
      "nebul": 5395,
      "There": 5396,
      "stric": 5397,
      "strual": 5398,
      "strati": 5399,
      "formal": 5400,
      "clothing": 5401,
      "clotting": 5402,
      "provider": 5403,
      "disagreements": 5404,
      "commer": 5405,
      "compared": 5406,
      "haploid": 5407,
      "ended": 5408,
      "solver": 5409,
      "osting": 5410,
      "shar": 5411,
      "shells": 5412,
      "transformed": 5413,
      "urement": 5414,
      "versati": 5415,
      "peer": 5416,
      "organogenesis": 5417,
      "structured": 5418,
      "inten": 5419,
      "quiet": 5420,
      "varieties": 5421,
      "parts": 5422,
      "uptake": 5423,
      "grate": 5424,
      "grass": 5425,
      "grounds": 5426,
      "realm": 5427,
      "fast": 5428,
      "faster": 5429,
      "guitar": 5430,
      "humanity": 5431,
      "impulses": 5432,
      "curtain": 5433,
      "primar": 5434,
      "playing": 5435,
      "backgrounds": 5436,
      "computations": 5437,
      "powering": 5438,
      "ieties": 5439,
      "ification": 5440,
      "deloc": 5441,
      "delicious": 5442,
      "understandings": 5443,
      "societies": 5444,
      "axis": 5445,
      "metamorph": 5446,
      "tremendous": 5447,
      "ordinary": 5448,
      "policies": 5449,
      "sens": 5450,
      "dividing": 5451,
      "nerve": 5452,
      "algae": 5453,
      "storms": 5454,
      "synthesized": 5455,
      "algorithmic": 5456,
      "glaciers": 5457,
      "copied": 5458,
      "spacetime": 5459,
      "rule": 5460,
      "forens": 5461,
      "couldn": 5462,
      "warms": 5463,
      "causing": 5464,
      "facing": 5465,
      "facts": 5466,
      "makeup": 5467,
      "explains": 5468,
      "Stars": 5469,
      "particle": 5470,
      "loving": 5471,
      "look": 5472,
      "loops": 5473,
      "mutation": 5474,
      "adaptations": 5475,
      "universal": 5476,
      "hippoc": 5477,
      "extinc": 5478,
      "misunderstandings": 5479,
      "integrating": 5480,
      "integrated": 5481,
      "worldwide": 5482,
      "plying": 5483,
      "giving": 5484,
      "giants": 5485,
      "piano": 5486,
      "Neurons": 5487,
      "definite": 5488,
      "earchers": 5489,
      "plasm": 5490,
      "dying": 5491,
      "named": 5492,
      "breakdown": 5493,
      "encouragement": 5494,
      "exams": 5495,
      "advancement": 5496,
      "combat": 5497,
      "ipate": 5498,
      "masses": 5499,
      "stimulation": 5500,
      "folds": 5501,
      "Geology": 5502,
      "corti": 5503,
      "operational": 5504,
      "interesting": 5505,
      "wrong": 5506,
      "dynamic": 5507,
      "routines": 5508,
      "vehicle": 5509,
      "progester": 5510,
      "phenotype": 5511,
      "farming": 5512,
      "Spending": 5513,
      "conducive": 5514,
      "robotic": 5515,
      "Chl": 5516,
      "belie": 5517,
      "everyone": 5518,
      "flexible": 5519,
      "physiology": 5520,
      "appreciate": 5521,
      "cultivating": 5522,
      "happy": 5523,
      "coordinating": 5524,
      "destination": 5525,
      "parents": 5526,
      "Deep": 5527,
      "phenomenon": 5528,
      "Unwinding": 5529,
      "linked": 5530,
      "transitioning": 5531,
      "modification": 5532,
      "hardware": 5533,
      "antigens": 5534,
      "accessibility": 5535,
      "calculate": 5536,
      "menstrual": 5537,
      "manipulate": 5538,
      "observing": 5539,
      "microorganisms": 5540,
      "existence": 5541,
      "beneath": 5542,
      "orbiting": 5543,
      "initiatives": 5544,
      "aea": 5545,
      "retro": 5546,
      "procurement": 5547,
      "differentiate": 5548,
      "gradually": 5549,
      "countries": 5550,
      "preservation": 5551,
      "aviation": 5552,
      "niche": 5553,
      "sugar": 5554,
      "ampus": 5555,
      "cytokines": 5556,
      "cytoplasm": 5557,
      "survival": 5558,
      "machiner": 5559,
      "showcasing": 5560,
      "mathematics": 5561,
      "disasters": 5562,
      "combined": 5563,
      "incorporating": 5564,
      "lungs": 5565,
      "extreme": 5566,
      "extremely": 5567,
      "Researchers": 5568,
      "escape": 5569,
      "mixture": 5570,
      "debates": 5571,
      "adoption": 5572,
      "barriers": 5573,
      "Transp": 5574,
      "astronaut": 5575,
      "penicill": 5576,
      "replenish": 5577,
      "geometries": 5578,
      "discrimination": 5579,
      "physicist": 5580,
      "journaling": 5581,
      "Protons": 5582,
      "auditory": 5583,
      "segreg": 5584,
      "diversifying": 5585,
      "susceptibility": 5586,
      "Boosting": 5587,
      "Maxwell": 5588,
      "asteroid": 5589,
      "Collaborating": 5590,
      "1905": 5591,
      "Trans": 5592,
      "payments": 5593,
      "podcasts": 5594,
      "sentiment": 5595,
      "anticipate": 5596,
      "encompasses": 5597,
      "likely": 5598,
      "velocity": 5599,
      "picnicking": 5600,
      "Engine": 5601,
      "convenience": 5602,
      "Regular": 5603,
      "alleviate": 5604,
      "ABCDE": 5605,
      "Climate": 5606,
      "Charles": 5607,
      "Listening": 5608,
      "Lavoisier": 5609,
      "Milky": 5610,
      "Studying": 5611,
      "bicycle": 5612,
      "categorize": 5613,
      "hustle": 5614,
      "military": 5615,
      "vessels": 5616,
      "escalate": 5617,
      "alcohol": 5618,
      "deforestation": 5619,
      "agenda": 5620,
      "opamine": 5621,
      "primarily": 5622,
      "hippocampus": 5623,
      "progesterone": 5624,
      "machinery": 5625,
      "penicillin": 5626,
      "0th": 5627,
      "14": 5628,
      "17": 5629,
      "2O": 5630,
      "20th": 5631,
      "5G": 5632,
      "Ac": 5633,
      "Av": 5634,
      "Ato": 5635,
      "Black": 5636,
      "CS": 5637,
      "Cy": 5638,
      "Cal": 5639,
      "Celebr": 5640,
      "Er": 5641,
      "Elec": 5642,
      "EEG": 5643,
      "Fin": 5644,
      "Gen": 5645,
      "Gal": 5646,
      "Hu": 5647,
      "Human": 5648,
      "ID": 5649,
      "Java": 5650,
      "Kel": 5651,
      "Lew": 5652,
      "Mic": 5653,
      "Met": 5654,
      "Mutations": 5655,
      "Ns": 5656,
      "Ori": 5657,
      "Oui": 5658,
      "Py": 5659,
      "Red": 5660,
      "Rud": 5661,
      "Sir": 5662,
      "Sust": 5663,
      "Scri": 5664,
      "Ti": 5665,
      "Tell": 5666,
      "UV": 5667,
      "Vaccines": 5668,
      "aero": 5669,
      "ball": 5670,
      "bble": 5671,
      "boun": 5672,
      "cover": 5673,
      "cading": 5674,
      "dden": 5675,
      "dopamine": 5676,
      "eving": 5677,
      "eased": 5678,
      "fred": 5679,
      "funding": 5680,
      "gativity": 5681,
      "hiring": 5682,
      "hacking": 5683,
      "ig": 5684,
      "iuses": 5685,
      "ians": 5686,
      "ja": 5687,
      "kil": 5688,
      "klin": 5689,
      "lose": 5690,
      "lending": 5691,
      "lutter": 5692,
      "mune": 5693,
      "milli": 5694,
      "nar": 5695,
      "oil": 5696,
      "pet": 5697,
      "pared": 5698,
      "patch": 5699,
      "passion": 5700,
      "rust": 5701,
      "son": 5702,
      "sou": 5703,
      "shel": 5704,
      "tet": 5705,
      "tone": 5706,
      "tiny": 5707,
      "ug": 5708,
      "wit": 5709,
      "whe": 5710,
      "wess": 5711,
      "wood": 5712,
      "wish": 5713,
      "wides": 5714,
      "yet": 5715,
      "ylation": 5716,
      "zhe": 5717,
      "inst": 5718,
      "ined": 5719,
      "intr": 5720,
      "reve": 5721,
      "retri": 5722,
      "remark": 5723,
      "recreation": 5724,
      "reward": 5725,
      "regenerative": 5726,
      "thon": 5727,
      "throp": 5728,
      "entical": 5729,
      "encoding": 5730,
      "enough": 5731,
      "estim": 5732,
      "always": 5733,
      "atos": 5734,
      "rot": 5735,
      "rous": 5736,
      "roid": 5737,
      "theater": 5738,
      "theft": 5739,
      "stre": 5740,
      "stac": 5741,
      "stakes": 5742,
      "togenetics": 5743,
      "astic": 5744,
      "asthen": 5745,
      "actical": 5746,
      "itu": 5747,
      "ectively": 5748,
      "proven": 5749,
      "proactive": 5750,
      "prowess": 5751,
      "enters": 5752,
      "entropy": 5753,
      "lift": 5754,
      "sius": 5755,
      "youth": 5756,
      "debr": 5757,
      "depolarization": 5758,
      "chun": 5759,
      "susp": 5760,
      "sudden": 5761,
      "cere": 5762,
      "emits": 5763,
      "truth": 5764,
      "reser": 5765,
      "ainable": 5766,
      "consolid": 5767,
      "heating": 5768,
      "abstr": 5769,
      "dilem": 5770,
      "rig": 5771,
      "optogenetics": 5772,
      "ulent": 5773,
      "ultra": 5774,
      "excess": 5775,
      "expos": 5776,
      "uted": 5777,
      "utants": 5778,
      "motive": 5779,
      "metics": 5780,
      "ogen": 5781,
      "ama": 5782,
      "ams": 5783,
      "ades": 5784,
      "advers": 5785,
      "advis": 5786,
      "adverse": 5787,
      "spicy": 5788,
      "imer": 5789,
      "genic": 5790,
      "geniuses": 5791,
      "octet": 5792,
      "percent": 5793,
      "ologic": 5794,
      "words": 5795,
      "idates": 5796,
      "identical": 5797,
      "indul": 5798,
      "aches": 5799,
      "workspace": 5800,
      "entials": 5801,
      "wealth": 5802,
      "webs": 5803,
      "reduces": 5804,
      "raise": 5805,
      "days": 5806,
      "ectural": 5807,
      "geograp": 5808,
      "hion": 5809,
      "histone": 5810,
      "actors": 5811,
      "engaged": 5812,
      "intermolecular": 5813,
      "observation": 5814,
      "obstac": 5815,
      "practical": 5816,
      "pread": 5817,
      "preva": 5818,
      "prepared": 5819,
      "cols": 5820,
      "intens": 5821,
      "trip": 5822,
      "culinary": 5823,
      "ausius": 5824,
      "upon": 5825,
      "gration": 5826,
      "improves": 5827,
      "undertake": 5828,
      "elections": 5829,
      "grocer": 5830,
      "buy": 5831,
      "recent": 5832,
      "decoded": 5833,
      "deceased": 5834,
      "declutter": 5835,
      "fault": 5836,
      "timing": 5837,
      "bread": 5838,
      "guiding": 5839,
      "drives": 5840,
      "regulations": 5841,
      "carefully": 5842,
      "impuri": 5843,
      "estrogen": 5844,
      "methylation": 5845,
      "crime": 5846,
      "onegativity": 5847,
      "duplic": 5848,
      "builds": 5849,
      "responsi": 5850,
      "aster": 5851,
      "personalizing": 5852,
      "ledging": 5853,
      "thesis": 5854,
      "money": 5855,
      "achieved": 5856,
      "capital": 5857,
      "encies": 5858,
      "encount": 5859,
      "signal": 5860,
      "handling": 5861,
      "generally": 5862,
      "polype": 5863,
      "expend": 5864,
      "rising": 5865,
      "synthesize": 5866,
      "pathway": 5867,
      "fosters": 5868,
      "enhancement": 5869,
      "downtime": 5870,
      "naturally": 5871,
      "inson": 5872,
      "charged": 5873,
      "ficient": 5874,
      "might": 5875,
      "mistakes": 5876,
      "automotive": 5877,
      "designated": 5878,
      "warm": 5879,
      "facial": 5880,
      "functioning": 5881,
      "conflicting": 5882,
      "refresh": 5883,
      "refram": 5884,
      "markets": 5885,
      "certifications": 5886,
      "controls": 5887,
      "learners": 5888,
      "connection": 5889,
      "magn": 5890,
      "magnetism": 5891,
      "magnets": 5892,
      "waiting": 5893,
      "constructing": 5894,
      "Mindfulness": 5895,
      "transported": 5896,
      "relaxing": 5897,
      "longer": 5898,
      "plastic": 5899,
      "plastics": 5900,
      "Encour": 5901,
      "trending": 5902,
      "simulating": 5903,
      "measuring": 5904,
      "placing": 5905,
      "depending": 5906,
      "cosmetics": 5907,
      "platform": 5908,
      "Experi": 5909,
      "Wegener": 5910,
      "frag": 5911,
      "glucagon": 5912,
      "Immune": 5913,
      "celebration": 5914,
      "lectures": 5915,
      "accessories": 5916,
      "Biotechnology": 5917,
      "psychological": 5918,
      "determining": 5919,
      "immersion": 5920,
      "safely": 5921,
      "presentation": 5922,
      "temperatures": 5923,
      "191": 5924,
      "topography": 5925,
      "detectors": 5926,
      "enjoying": 5927,
      "transformations": 5928,
      "travels": 5929,
      "absorption": 5930,
      "games": 5931,
      "simply": 5932,
      "halation": 5933,
      "pollutants": 5934,
      "damaging": 5935,
      "diagnosis": 5936,
      "harnesses": 5937,
      "alternate": 5938,
      "architec": 5939,
      "architectural": 5940,
      "mediation": 5941,
      "equator": 5942,
      "happening": 5943,
      "accurately": 5944,
      "fraudulent": 5945,
      "Clerk": 5946,
      "Clausius": 5947,
      "logo": 5948,
      "received": 5949,
      "Alfred": 5950,
      "Alzhe": 5951,
      "instructional": 5952,
      "instructors": 5953,
      "embryonic": 5954,
      "treasure": 5955,
      "landscapes": 5956,
      "landforms": 5957,
      "telescope": 5958,
      "extract": 5959,
      "partners": 5960,
      "explosions": 5961,
      "participation": 5962,
      "evolve": 5963,
      "hosting": 5964,
      "soft": 5965,
      "cycles": 5966,
      "appliances": 5967,
      "filled": 5968,
      "diagnoses": 5969,
      "Telescopes": 5970,
      "domin": 5971,
      "foil": 5972,
      "foods": 5973,
      "recipe": 5974,
      "existing": 5975,
      "fertilizers": 5976,
      "collection": 5977,
      "orbital": 5978,
      "poisons": 5979,
      "societal": 5980,
      "mitigation": 5981,
      "initiating": 5982,
      "initiated": 5983,
      "ontolog": 5984,
      "pull": 5985,
      "execution": 5986,
      "executed": 5987,
      "modify": 5988,
      "obooks": 5989,
      "speeds": 5990,
      "civilization": 5991,
      "barren": 5992,
      "pioneering": 5993,
      "divergent": 5994,
      "audience": 5995,
      "audiobooks": 5996,
      "affects": 5997,
      "referred": 5998,
      "commitment": 5999,
      "distributions": 6000,
      "particularly": 6001,
      "Life": 6002,
      "Like": 6003,
      "fashion": 6004,
      "protocols": 6005,
      "pursuing": 6006,
      "reshaped": 6007,
      "Overcoming": 6008,
      "Special": 6009,
      "aerial": 6010,
      "fungi": 6011,
      "gathering": 6012,
      "hunting": 6013,
      "tough": 6014,
      "abundance": 6015,
      "movie": 6016,
      "indicative": 6017,
      "hypothalamus": 6018,
      "billions": 6019,
      "candidates": 6020,
      "ensures": 6021,
      "speaker": 6022,
      "avail": 6023,
      "birth": 6024,
      "recovery": 6025,
      "gaps": 6026,
      "electrophysiology": 6027,
      "rainbow": 6028,
      "rainbows": 6029,
      "counseling": 6030,
      "Franklin": 6031,
      "somatos": 6032,
      "texture": 6033,
      "textbooks": 6034,
      "updates": 6035,
      "Nanotechnology": 6036,
      "remnant": 6037,
      "thyroid": 6038,
      "children": 6039,
      "spontaneously": 6040,
      "induced": 6041,
      "weaken": 6042,
      "investig": 6043,
      "Advanced": 6044,
      "brilliance": 6045,
      "beliefs": 6046,
      "Oxid": 6047,
      "Internet": 6048,
      "ratio": 6049,
      "acknowledging": 6050,
      "oxidized": 6051,
      "advantages": 6052,
      "grievances": 6053,
      "counterfeiting": 6054,
      "cascading": 6055,
      "vegetation": 6056,
      "recurrent": 6057,
      "cooling": 6058,
      "expansion": 6059,
      "safeguarding": 6060,
      "rhythms": 6061,
      "Meditation": 6062,
      "Osmosis": 6063,
      "Parkinson": 6064,
      "Thanks": 6065,
      "aquatic": 6066,
      "kidneys": 6067,
      "pumps": 6068,
      "anatomy": 6069,
      "extraordinary": 6070,
      "quickly": 6071,
      "stratigraphy": 6072,
      "commerce": 6073,
      "versatile": 6074,
      "grateful": 6075,
      "forensic": 6076,
      "Engineers": 6077,
      "17th": 6078,
      "Calvin": 6079,
      "Celebrating": 6080,
      "Galax": 6081,
      "Hubble": 6082,
      "JavaScri": 6083,
      "Kelvin": 6084,
      "Lewis": 6085,
      "Origin": 6086,
      "Ouija": 6087,
      "Python": 6088,
      "Rudolf": 6089,
      "Sustainable": 6090,
      "Time": 6091,
      "aerospace": 6092,
      "widespread": 6093,
      "remarkable": 6094,
      "thropologists": 6095,
      "asthenosphere": 6096,
      "debris": 6097,
      "chunks": 6098,
      "suspicious": 6099,
      "abstract": 6100,
      "dilemmas": 6101,
      "obstacles": 6102,
      "intensity": 6103,
      "impurities": 6104,
      "polypeptide": 6105,
      "reframing": 6106,
      "Encouraging": 6107,
      "Experimenting": 6108,
      "Alzheimer": 6109,
      "somatosensory": 6110,
      "JavaScript": 6111,
      "'?": 6112,
      "Bases": 6113,
      "Cric": 6114,
      "EM": 6115,
      "Evolution": 6116,
      "Easter": 6117,
      "Gl": 6118,
      "Greg": 6119,
      "H2O": 6120,
      "IT": 6121,
      "Johan": 6122,
      "Lo": 6123,
      "Mon": 6124,
      "Ness": 6125,
      "Of": 6126,
      "Pred": 6127,
      "Palind": 6128,
      "Rec": 6129,
      "Ros": 6130,
      "SD": 6131,
      "ST": 6132,
      "Synaptic": 6133,
      "TV": 6134,
      "Wil": 6135,
      "Wats": 6136,
      "aque": 6137,
      "bbles": 6138,
      "dol": 6139,
      "dancing": 6140,
      "dinner": 6141,
      "east": 6142,
      "either": 6143,
      "fers": 6144,
      "fine": 6145,
      "ffer": 6146,
      "fuse": 6147,
      "fish": 6148,
      "gun": 6149,
      "gos": 6150,
      "hur": 6151,
      "iation": 6152,
      "iries": 6153,
      "jum": 6154,
      "kins": 6155,
      "kitch": 6156,
      "lap": 6157,
      "late": 6158,
      "later": 6159,
      "lakes": 6160,
      "lute": 6161,
      "mac": 6162,
      "mate": 6163,
      "nes": 6164,
      "nor": 6165,
      "nur": 6166,
      "nals": 6167,
      "next": 6168,
      "nthesis": 6169,
      "olet": 6170,
      "pac": 6171,
      "pine": 6172,
      "ptional": 6173,
      "pressing": 6174,
      "pets": 6175,
      "rs": 6176,
      "ron": 6177,
      "rad": 6178,
      "squ": 6179,
      "sour": 6180,
      "selling": 6181,
      "tories": 6182,
      "uk": 6183,
      "ured": 6184,
      "vents": 6185,
      "vary": 6186,
      "vection": 6187,
      "wise": 6188,
      "yeast": 6189,
      "zones": 6190,
      "income": 6191,
      "inorganic": 6192,
      "independence": 6193,
      "anaerobic": 6194,
      "tiful": 6195,
      "tidal": 6196,
      "ony": 6197,
      "onential": 6198,
      "rehe": 6199,
      "repre": 6200,
      "reefs": 6201,
      "reconstruct": 6202,
      "replacing": 6203,
      "thri": 6204,
      "thunder": 6205,
      "throw": 6206,
      "erie": 6207,
      "orts": 6208,
      "alone": 6209,
      "alright": 6210,
      "alkali": 6211,
      "atology": 6212,
      "rover": 6213,
      "stabi": 6214,
      "stret": 6215,
      "status": 6216,
      "outs": 6217,
      "tool": 6218,
      "iction": 6219,
      "icists": 6220,
      "leic": 6221,
      "leak": 6222,
      "leaves": 6223,
      "arst": 6224,
      "arms": 6225,
      "ash": 6226,
      "asons": 6227,
      "itate": 6228,
      "itting": 6229,
      "itary": 6230,
      "ece": 6231,
      "ecologists": 6232,
      "edtech": 6233,
      "entrepre": 6234,
      "olfactory": 6235,
      "sid": 6236,
      "sip": 6237,
      "sial": 6238,
      "deal": 6239,
      "defic": 6240,
      "deple": 6241,
      "deoxy": 6242,
      "cham": 6243,
      "erspac": 6244,
      "ema": 6245,
      "empor": 6246,
      "empowers": 6247,
      "empowering": 6248,
      "violet": 6249,
      "tractive": 6250,
      "trapping": 6251,
      "plug": 6252,
      "When": 6253,
      "uning": 6254,
      "unwinding": 6255,
      "contrac": 6256,
      "healing": 6257,
      "abling": 6258,
      "dian": 6259,
      "ago": 6260,
      "rid": 6261,
      "ribon": 6262,
      "rification": 6263,
      "opens": 6264,
      "ulums": 6265,
      "ucleic": 6266,
      "adds": 6267,
      "adren": 6268,
      "spend": 6269,
      "spreading": 6270,
      "impossible": 6271,
      "qubits": 6272,
      "iron": 6273,
      "irable": 6274,
      "teries": 6275,
      "terra": 6276,
      "genomes": 6277,
      "otes": 6278,
      "otech": 6279,
      "otcam": 6280,
      "otonin": 6281,
      "beau": 6282,
      "beaut": 6283,
      "neither": 6284,
      "ocy": 6285,
      "ocks": 6286,
      "oclim": 6287,
      "teem": 6288,
      "percei": 6289,
      "ologous": 6290,
      "Interspac": 6291,
      "strat": 6292,
      "strulation": 6293,
      "managed": 6294,
      "iday": 6295,
      "idity": 6296,
      "seen": 6297,
      "seasons": 6298,
      "disappear": 6299,
      "disabling": 6300,
      "volun": 6301,
      "odor": 6302,
      "compar": 6303,
      "compet": 6304,
      "romic": 6305,
      "allele": 6306,
      "ustered": 6307,
      "raising": 6308,
      "notes": 6309,
      "thering": 6310,
      "phone": 6311,
      "phases": 6312,
      "phony": 6313,
      "output": 6314,
      "hier": 6315,
      "sho": 6316,
      "shed": 6317,
      "acters": 6318,
      "actable": 6319,
      "transit": 6320,
      "interoper": 6321,
      "interconnected": 6322,
      "obstruc": 6323,
      "meditate": 6324,
      "illum": 6325,
      "prise": 6326,
      "predis": 6327,
      "prepa": 6328,
      "preven": 6329,
      "controver": 6330,
      "contempor": 6331,
      "pea": 6332,
      "peats": 6333,
      "serotonin": 6334,
      "bohydr": 6335,
      "bootcam": 6336,
      "bothering": 6337,
      "floor": 6338,
      "intest": 6339,
      "iled": 6340,
      "speciation": 6341,
      "quieter": 6342,
      "cules": 6343,
      "assets": 6344,
      "biases": 6345,
      "biotech": 6346,
      "skin": 6347,
      "skelet": 6348,
      "upfront": 6349,
      "tast": 6350,
      "taken": 6351,
      "realms": 6352,
      "prescri": 6353,
      "prescribe": 6354,
      "bubbles": 6355,
      "recall": 6356,
      "record": 6357,
      "fairies": 6358,
      "ception": 6359,
      "timely": 6360,
      "bonded": 6361,
      "tasking": 6362,
      "cools": 6363,
      "cooperation": 6364,
      "estone": 6365,
      "standards": 6366,
      "priate": 6367,
      "marks": 6368,
      "stressful": 6369,
      "lightning": 6370,
      "mindful": 6371,
      "theses": 6372,
      "ignite": 6373,
      "positivity": 6374,
      "capac": 6375,
      "centuries": 6376,
      "limbs": 6377,
      "limestone": 6378,
      "carbohydr": 6379,
      "offerings": 6380,
      "subtractive": 6381,
      "environmentalist": 6382,
      "divides": 6383,
      "advances": 6384,
      "nerves": 6385,
      "expenses": 6386,
      "exponential": 6387,
      "elev": 6388,
      "futuri": 6389,
      "pathways": 6390,
      "enhancements": 6391,
      "holding": 6392,
      "holiday": 6393,
      "stays": 6394,
      "favorable": 6395,
      "characters": 6396,
      "superposition": 6397,
      "forests": 6398,
      "foresight": 6399,
      "twink": 6400,
      "optimizes": 6401,
      "cadian": 6402,
      "spiral": 6403,
      "evade": 6404,
      "mechanism": 6405,
      "neurogenesis": 6406,
      "love": 6407,
      "lobe": 6408,
      "performing": 6409,
      "centralized": 6410,
      "radial": 6411,
      "misuse": 6412,
      "wait": 6413,
      "situation": 6414,
      "malicious": 6415,
      "journals": 6416,
      "Neural": 6417,
      "protective": 6418,
      "plasma": 6419,
      "Engl": 6420,
      "enabled": 6421,
      "addictive": 6422,
      "converting": 6423,
      "purification": 6424,
      "venture": 6425,
      "tricks": 6426,
      "hydropower": 6427,
      "casting": 6428,
      "celebrity": 6429,
      "Geor": 6430,
      "Geothermal": 6431,
      "coral": 6432,
      "correlations": 6433,
      "graph": 6434,
      "graphic": 6435,
      "larger": 6436,
      "visualizing": 6437,
      "continue": 6438,
      "paint": 6439,
      "membranes": 6440,
      "cleaner": 6441,
      "dedicated": 6442,
      "costly": 6443,
      "brainstorm": 6444,
      "thankful": 6445,
      "hobby": 6446,
      "removed": 6447,
      "commonly": 6448,
      "cratic": 6449,
      "multiplying": 6450,
      "multitasking": 6451,
      "Viruses": 6452,
      "descriptive": 6453,
      "pollination": 6454,
      "camarad": 6455,
      "reliable": 6456,
      "relieving": 6457,
      "tracellular": 6458,
      "weathering": 6459,
      "transcriptional": 6460,
      "directional": 6461,
      "translational": 6462,
      "established": 6463,
      "nonmetals": 6464,
      "boosting": 6465,
      "below": 6466,
      "oroid": 6467,
      "excite": 6468,
      "association": 6469,
      "original": 6470,
      "stuff": 6471,
      "equity": 6472,
      "equitable": 6473,
      "injuries": 6474,
      "streamlining": 6475,
      "functionality": 6476,
      "Clustered": 6477,
      "receptor": 6478,
      "receiving": 6479,
      "thought": 6480,
      "destiny": 6481,
      "homogeneous": 6482,
      "homologous": 6483,
      "landmarks": 6484,
      "lifting": 6485,
      "lifelong": 6486,
      "extraction": 6487,
      "volcanoes": 6488,
      "yields": 6489,
      "visibility": 6490,
      "accelerators": 6491,
      "framework": 6492,
      "gastrulation": 6493,
      "inspiring": 6494,
      "transformational": 6495,
      "follic": 6496,
      "toxin": 6497,
      "radioactive": 6498,
      "biomole": 6499,
      "chemiosmosis": 6500,
      "Ecologists": 6501,
      "symphony": 6502,
      "democratic": 6503,
      "modified": 6504,
      "modifying": 6505,
      "makes": 6506,
      "obots": 6507,
      "colonization": 6508,
      "preserve": 6509,
      "defense": 6510,
      "closet": 6511,
      "closely": 6512,
      "maximizing": 6513,
      "translations": 6514,
      "translated": 6515,
      "fantasy": 6516,
      "negotiation": 6517,
      "negotiate": 6518,
      "Potential": 6519,
      "Short": 6520,
      "meteoroid": 6521,
      "circulation": 6522,
      "vulnerability": 6523,
      "CoA": 6524,
      "Repeats": 6525,
      "joys": 6526,
      "panels": 6527,
      "appropriate": 6528,
      "successive": 6529,
      "counteract": 6530,
      "hunger": 6531,
      "upset": 6532,
      "upselling": 6533,
      "stepping": 6534,
      "eliminate": 6535,
      "lipid": 6536,
      "stronger": 6537,
      "roscopic": 6538,
      "combining": 6539,
      "progression": 6540,
      "18th": 6541,
      "dreams": 6542,
      "easy": 6543,
      "easier": 6544,
      "salts": 6545,
      "outermost": 6546,
      "sector": 6547,
      "invasive": 6548,
      "representation": 6549,
      "representations": 6550,
      "escaping": 6551,
      "overlaying": 6552,
      "fluid": 6553,
      "Embryonic": 6554,
      "strives": 6555,
      "chron": 6556,
      "chronic": 6557,
      "floods": 6558,
      "triggers": 6559,
      "triggering": 6560,
      "bridges": 6561,
      "barrier": 6562,
      "Epigenetic": 6563,
      "Francis": 6564,
      "fairness": 6565,
      "summoning": 6566,
      "weekend": 6567,
      "fingerprint": 6568,
      "pendulum": 6569,
      "pendulums": 6570,
      "paleontolog": 6571,
      "condenses": 6572,
      "weapon": 6573,
      "weapons": 6574,
      "hydrated": 6575,
      "shapeshift": 6576,
      "shapeshifting": 6577,
      "cocktails": 6578,
      "mirrors": 6579,
      "sabotage": 6580,
      "sabotaging": 6581,
      "ovulation": 6582,
      "runoff": 6583,
      "utili": 6584,
      "victories": 6585,
      "stores": 6586,
      "plumber": 6587,
      "horizon": 6588,
      "cosmology": 6589,
      "followed": 6590,
      "statistics": 6591,
      "Neuroscience": 6592,
      "destroyed": 6593,
      "fulfillment": 6594,
      "hanging": 6595,
      "tolerance": 6596,
      "acetyl": 6597,
      "permeable": 6598,
      "branches": 6599,
      "parkour": 6600,
      "experienced": 6601,
      "hyperpolarization": 6602,
      "secondary": 6603,
      "affordability": 6604,
      "treehouse": 6605,
      "valleys": 6606,
      "prosthetics": 6607,
      "Philosophy": 6608,
      "rejuvenate": 6609,
      "leisurely": 6610,
      "Mineral": 6611,
      "lattice": 6612,
      "since": 6613,
      "usually": 6614,
      "vacu": 6615,
      "reasoning": 6616,
      "stomach": 6617,
      "proportional": 6618,
      "depicted": 6619,
      "springs": 6620,
      "sensations": 6621,
      "cortisol": 6622,
      "retroactively": 6623,
      "segregation": 6624,
      "Regularly": 6625,
      "millions": 6626,
      "soul": 6627,
      "shelter": 6628,
      "whether": 6629,
      "wishes": 6630,
      "install": 6631,
      "intractable": 6632,
      "retrie": 6633,
      "recreational": 6634,
      "rigid": 6635,
      "ultraviolet": 6636,
      "amazing": 6637,
      "website": 6638,
      "preparedness": 6639,
      "decluttering": 6640,
      "architecture": 6641,
      "investigations": 6642,
      "Galaxies": 6643,
      "Crick": 6644,
      "Gregor": 6645,
      "Johannes": 6646,
      "Loch": 6647,
      "Monster": 6648,
      "Palindromic": 6649,
      "Rosalind": 6650,
      "STEM": 6651,
      "Wilkins": 6652,
      "Watson": 6653,
      "gossip": 6654,
      "kitchen": 6655,
      "rehears": 6656,
      "thunderstorms": 6657,
      "stretching": 6658,
      "leaky": 6659,
      "chambers": 6660,
      "contractual": 6661,
      "ribonucleic": 6662,
      "adrenal": 6663,
      "beautiful": 6664,
      "beauty": 6665,
      "oclimatology": 6666,
      "Interspaced": 6667,
      "disappearances": 6668,
      "obstructing": 6669,
      "prepares": 6670,
      "controversial": 6671,
      "contemporary": 6672,
      "bootcamps": 6673,
      "intestine": 6674,
      "prescriptive": 6675,
      "carbohydrates": 6676,
      "futurist": 6677,
      "camaraderie": 6678,
      "biomolecules": 6679,
      "+]": 6680,
      "100": 6681,
      "23": 6682,
      "28": 6683,
      "59": 6684,
      "68": 6685,
      "Bon": 6686,
      "Bal": 6687,
      "Bene": 6688,
      "CN": 6689,
      "Car": 6690,
      "Dop": 6691,
      "EV": 6692,
      "Ef": 6693,
      "Ero": 6694,
      "Ele": 6695,
      "Fer": 6696,
      "Fos": 6697,
      "Gib": 6698,
      "HT": 6699,
      "Hol": 6700,
      "Ionic": 6701,
      "Light": 6702,
      "Location": 6703,
      "Maur": 6704,
      "OH": 6705,
      "PT": 6706,
      "Po": 6707,
      "Ple": 6708,
      "Par": 6709,
      "Pers": 6710,
      "Pang": 6711,
      "PNS": 6712,
      "Ru": 6713,
      "Sur": 6714,
      "Tog": 6715,
      "Vari": 6716,
      "Willi": 6717,
      "ave": 6718,
      "adi": 6719,
      "aqui": 6720,
      "ause": 6721,
      "atively": 6722,
      "bor": 6723,
      "bell": 6724,
      "bust": 6725,
      "bile": 6726,
      "ced": 6727,
      "cies": 6728,
      "cum": 6729,
      "card": 6730,
      "cogen": 6731,
      "din": 6732,
      "dys": 6733,
      "eth": 6734,
      "eat": 6735,
      "ether": 6736,
      "eight": 6737,
      "etry": 6738,
      "fat": 6739,
      "flight": 6740,
      "fresh": 6741,
      "gour": 6742,
      "gover": 6743,
      "hen": 6744,
      "hec": 6745,
      "homes": 6746,
      "heter": 6747,
      "iph": 6748,
      "ights": 6749,
      "ived": 6750,
      "itism": 6751,
      "ioid": 6752,
      "jud": 6753,
      "jok": 6754,
      "kick": 6755,
      "lic": 6756,
      "last": 6757,
      "lak": 6758,
      "lush": 6759,
      "lenses": 6760,
      "mers": 6761,
      "mam": 6762,
      "nate": 6763,
      "nich": 6764,
      "nest": 6765,
      "necting": 6766,
      "national": 6767,
      "py": 6768,
      "pon": 6769,
      "pts": 6770,
      "ptions": 6771,
      "pari": 6772,
      "press": 6773,
      "pins": 6774,
      "pitu": 6775,
      "sti": 6776,
      "sar": 6777,
      "stic": 6778,
      "swe": 6779,
      "scr": 6780,
      "slip": 6781,
      "tour": 6782,
      "tune": 6783,
      "usi": 6784,
      "voc": 6785,
      "vals": 6786,
      "wi": 6787,
      "wis": 6788,
      "wine": 6789,
      "wings": 6790,
      "wild": 6791,
      "wolf": 6792,
      "xide": 6793,
      "zero": 6794,
      "ΔG": 6795,
      "inser": 6796,
      "inspec": 6797,
      "infer": 6798,
      "innate": 6799,
      "onboarding": 6800,
      "resu": 6801,
      "retain": 6802,
      "reactive": 6803,
      "resum": 6804,
      "remember": 6805,
      "recessive": 6806,
      "restric": 6807,
      "rehen": 6808,
      "thym": 6809,
      "thusi": 6810,
      "era": 6811,
      "erts": 6812,
      "erman": 6813,
      "erine": 6814,
      "eneck": 6815,
      "encode": 6816,
      "enclosed": 6817,
      "enjoys": 6818,
      "enthusi": 6819,
      "esteem": 6820,
      "orman": 6821,
      "alism": 6822,
      "ander": 6823,
      "atar": 6824,
      "roph": 6825,
      "thetic": 6826,
      "thetical": 6827,
      "elines": 6828,
      "outing": 6829,
      "toc": 6830,
      "toine": 6831,
      "togenesis": 6832,
      "icit": 6833,
      "icine": 6834,
      "ichi": 6835,
      "lept": 6836,
      "artis": 6837,
      "arteries": 6838,
      "isn": 6839,
      "isions": 6840,
      "acial": 6841,
      "ites": 6842,
      "itures": 6843,
      "itten": 6844,
      "eco": 6845,
      "eclip": 6846,
      "edicine": 6847,
      "lie": 6848,
      "liant": 6849,
      "sified": 6850,
      "dealing": 6851,
      "detox": 6852,
      "deoxygenated": 6853,
      "veins": 6854,
      "trau": 6855,
      "true": 6856,
      "unint": 6857,
      "undifferenti": 6858,
      "confer": 6859,
      "convection": 6860,
      "hea": 6861,
      "hear": 6862,
      "hearing": 6863,
      "aps": 6864,
      "appoint": 6865,
      "dible": 6866,
      "dipo": 6867,
      "dilation": 6868,
      "dization": 6869,
      "riers": 6870,
      "river": 6871,
      "rift": 6872,
      "opes": 6873,
      "opening": 6874,
      "oparticles": 6875,
      "opioid": 6876,
      "comfort": 6877,
      "expo": 6878,
      "excessive": 6879,
      "uterine": 6880,
      "moons": 6881,
      "moves": 6882,
      "movers": 6883,
      "mobi": 6884,
      "mosa": 6885,
      "mobile": 6886,
      "meals": 6887,
      "ameters": 6888,
      "aders": 6889,
      "adver": 6890,
      "adding": 6891,
      "spind": 6892,
      "spraw": 6893,
      "impa": 6894,
      "impar": 6895,
      "verbal": 6896,
      "irregular": 6897,
      "ircut": 6898,
      "ometry": 6899,
      "oson": 6900,
      "oty": 6901,
      "beat": 6902,
      "beams": 6903,
      "occ": 6904,
      "izoph": 6905,
      "perman": 6906,
      "lys": 6907,
      "byproducts": 6908,
      "byproduct": 6909,
      "ancements": 6910,
      "keys": 6911,
      "echo": 6912,
      "close": 6913,
      "ided": 6914,
      "ident": 6915,
      "search": 6916,
      "dissol": 6917,
      "discharge": 6918,
      "dissem": 6919,
      "alsa": 6920,
      "commens": 6921,
      "inequality": 6922,
      "worked": 6923,
      "wear": 6924,
      "fictional": 6925,
      "ficacy": 6926,
      "efficacy": 6927,
      "processed": 6928,
      "comprehen": 6929,
      "romorph": 6930,
      "haircut": 6931,
      "ortation": 6932,
      "ortment": 6933,
      "alls": 6934,
      "alleng": 6935,
      "ustatory": 6936,
      "raid": 6937,
      "note": 6938,
      "therford": 6939,
      "phag": 6940,
      "phins": 6941,
      "geys": 6942,
      "geolocation": 6943,
      "geologic": 6944,
      "outlook": 6945,
      "cium": 6946,
      "civic": 6947,
      "mast": 6948,
      "maest": 6949,
      "solvent": 6950,
      "developments": 6951,
      "hire": 6952,
      "hips": 6953,
      "herent": 6954,
      "bless": 6955,
      "blend": 6956,
      "shine": 6957,
      "shocks": 6958,
      "acted": 6959,
      "transgenic": 6960,
      "intermedi": 6961,
      "interstellar": 6962,
      "intervals": 6963,
      "obtain": 6964,
      "sorting": 6965,
      "ysicists": 6966,
      "respectively": 6967,
      "price": 6968,
      "pruning": 6969,
      "premis": 6970,
      "contamin": 6971,
      "peace": 6972,
      "serving": 6973,
      "paving": 6974,
      "fective": 6975,
      "vironmental": 6976,
      "actile": 6977,
      "flat": 6978,
      "flapping": 6979,
      "systematic": 6980,
      "spectra": 6981,
      "reless": 6982,
      "changed": 6983,
      "desirable": 6984,
      "asset": 6985,
      "assment": 6986,
      "assortment": 6987,
      "biof": 6988,
      "bitions": 6989,
      "biking": 6990,
      "rench": 6991,
      "renia": 6992,
      "althy": 6993,
      "plane": 6994,
      "planes": 6995,
      "differ": 6996,
      "mini": 6997,
      "mining": 6998,
      "autism": 6999,
      "parameters": 7000,
      "grant": 7001,
      "undermine": 7002,
      "underpins": 7003,
      "underlie": 7004,
      "pool": 7005,
      "poetry": 7006,
      "experiment": 7007,
      "noise": 7008,
      "realities": 7009,
      "brainstem": 7010,
      "chemically": 7011,
      "electronegativity": 7012,
      "pressions": 7013,
      "ifies": 7014,
      "buying": 7015,
      "buffer": 7016,
      "located": 7017,
      "decre": 7018,
      "decay": 7019,
      "decide": 7020,
      "deciph": 7021,
      "decided": 7022,
      "breaches": 7023,
      "student": 7024,
      "gue": 7025,
      "welling": 7026,
      "earli": 7027,
      "careful": 7028,
      "coat": 7029,
      "coast": 7030,
      "sets": 7031,
      "breath": 7032,
      "estate": 7033,
      "neurial": 7034,
      "prio": 7035,
      "players": 7036,
      "because": 7037,
      "chains": 7038,
      "Earthquakes": 7039,
      "transposon": 7040,
      "hyd": 7041,
      "securing": 7042,
      "profiling": 7043,
      "afraid": 7044,
      "capsid": 7045,
      "signature": 7046,
      "identification": 7047,
      "centric": 7048,
      "handled": 7049,
      "validate": 7050,
      "calcium": 7051,
      "carry": 7052,
      "carriers": 7053,
      "generates": 7054,
      "insight": 7055,
      "sensi": 7056,
      "environmentally": 7057,
      "promotes": 7058,
      "guidelines": 7059,
      "rises": 7060,
      "storing": 7061,
      "collaborated": 7062,
      "algorithm": 7063,
      "glo": 7064,
      "glow": 7065,
      "feels": 7066,
      "ensed": 7067,
      "smiling": 7068,
      "predation": 7069,
      "settings": 7070,
      "sustaining": 7071,
      "migration": 7072,
      "werewolf": 7073,
      "transmits": 7074,
      "designers": 7075,
      "markers": 7076,
      "superpowers": 7077,
      "supercontinent": 7078,
      "complexity": 7079,
      "forecasts": 7080,
      "balances": 7081,
      "derm": 7082,
      "derived": 7083,
      "enabler": 7084,
      "optimism": 7085,
      "faced": 7086,
      "climb": 7087,
      "continues": 7088,
      "porting": 7089,
      "RNAs": 7090,
      "mechanic": 7091,
      "incredible": 7092,
      "neuroplasticity": 7093,
      "neurodevelopmental": 7094,
      "ceram": 7095,
      "harmon": 7096,
      "harassment": 7097,
      "utrients": 7098,
      "restore": 7099,
      "Stress": 7100,
      "save": 7101,
      "drop": 7102,
      "drogen": 7103,
      "teacher": 7104,
      "magma": 7105,
      "miss": 7106,
      "wake": 7107,
      "erode": 7108,
      "popular": 7109,
      "tales": 7110,
      "malware": 7111,
      "pigment": 7112,
      "differential": 7113,
      "Environmental": 7114,
      "revolutionary": 7115,
      "groundwork": 7116,
      "breakfast": 7117,
      "examining": 7118,
      "addiction": 7119,
      "lization": 7120,
      "value": 7121,
      "patience": 7122,
      "massage": 7123,
      "ranges": 7124,
      "Art": 7125,
      "Weather": 7126,
      "fraction": 7127,
      "hydroxide": 7128,
      "bridization": 7129,
      "corrup": 7130,
      "operates": 7131,
      "Antoine": 7132,
      "scalable": 7133,
      "consumers": 7134,
      "oxygenation": 7135,
      "schizoph": 7136,
      "wastage": 7137,
      "activate": 7138,
      "activated": 7139,
      "periods": 7140,
      "compositions": 7141,
      "phenology": 7142,
      "phenoty": 7143,
      "Project": 7144,
      "circadian": 7145,
      "catalyze": 7146,
      "overwhelming": 7147,
      "respectful": 7148,
      "medications": 7149,
      "turnover": 7150,
      "craft": 7151,
      "promises": 7152,
      "promising": 7153,
      "wizards": 7154,
      "entertained": 7155,
      "descriptions": 7156,
      "cryptocurrency": 7157,
      "dams": 7158,
      "tracting": 7159,
      "alien": 7160,
      "disruption": 7161,
      "Challeng": 7162,
      "distract": 7163,
      "perceptions": 7164,
      "neuroscientists": 7165,
      "habitable": 7166,
      "alongside": 7167,
      "mediating": 7168,
      "accountable": 7169,
      "equation": 7170,
      "happen": 7171,
      "injured": 7172,
      "transferred": 7173,
      "coordinated": 7174,
      "functionalities": 7175,
      "superheroes": 7176,
      "reflecting": 7177,
      "Neuroplasticity": 7178,
      "passing": 7179,
      "passed": 7180,
      "passage": 7181,
      "passwords": 7182,
      "Under": 7183,
      "evening": 7184,
      "votes": 7185,
      "polarize": 7186,
      "explosive": 7187,
      "flowers": 7188,
      "glycogen": 7189,
      "competition": 7190,
      "sediments": 7191,
      "introduces": 7192,
      "assembl": 7193,
      "calculations": 7194,
      "diagnostics": 7195,
      "assertively": 7196,
      "manipulation": 7197,
      "collecting": 7198,
      "collected": 7199,
      "radioactivity": 7200,
      "switch": 7201,
      "choose": 7202,
      "interpretation": 7203,
      "Ecological": 7204,
      "countless": 7205,
      "infection": 7206,
      "infectious": 7207,
      "aligned": 7208,
      "alignment": 7209,
      "regional": 7210,
      "pulsar": 7211,
      "tleneck": 7212,
      "execute": 7213,
      "colorless": 7214,
      "preserved": 7215,
      "humidity": 7216,
      "juggling": 7217,
      "defend": 7218,
      "deflec": 7219,
      "cytoskelet": 7220,
      "audio": 7221,
      "parallax": 7222,
      "collisions": 7223,
      "forecasting": 7224,
      "vulnerable": 7225,
      "governments": 7226,
      "joining": 7227,
      "joined": 7228,
      "consulting": 7229,
      "pursuit": 7230,
      "pursuits": 7231,
      "deploying": 7232,
      "Healthy": 7233,
      "client": 7234,
      "hunter": 7235,
      "dimensions": 7236,
      "indicators": 7237,
      "hypotheses": 7238,
      "hypothetical": 7239,
      "epigenetics": 7240,
      "189": 7241,
      "1859": 7242,
      "candidate": 7243,
      "lunar": 7244,
      "melt": 7245,
      "restoration": 7246,
      "coaches": 7247,
      "currents": 7248,
      "Physicists": 7249,
      "birds": 7250,
      "invaders": 7251,
      "video": 7252,
      "mixing": 7253,
      "distinguishes": 7254,
      "bridge": 7255,
      "counselor": 7256,
      "meteorite": 7257,
      "Epigenetics": 7258,
      "replenished": 7259,
      "geometry": 7260,
      "updated": 7261,
      "physicists": 7262,
      "fueled": 7263,
      "Protecting": 7264,
      "Mendelian": 7265,
      "Connecting": 7266,
      "matching": 7267,
      "paleoclimatology": 7268,
      "voir": 7269,
      "informative": 7270,
      "remnants": 7271,
      "thylak": 7272,
      "resonate": 7273,
      "resonance": 7274,
      "contextually": 7275,
      "investigating": 7276,
      "Advancements": 7277,
      "brilliant": 7278,
      "belief": 7279,
      "filtering": 7280,
      "molarity": 7281,
      "utilities": 7282,
      "artifacts": 7283,
      "plumbing": 7284,
      "decode": 7285,
      "decoding": 7286,
      "limitless": 7287,
      "horizons": 7288,
      "cosmological": 7289,
      "correct": 7290,
      "statistical": 7291,
      "Neuroscientists": 7292,
      "destroying": 7293,
      "appearance": 7294,
      "citizenship": 7295,
      "...": 7296,
      "bank": 7297,
      "luminous": 7298,
      "luminosity": 7299,
      "tropism": 7300,
      "tropisms": 7301,
      "reminders": 7302,
      "parasites": 7303,
      "companionship": 7304,
      "orchestrating": 7305,
      "Drones": 7306,
      "Hydrogen": 7307,
      "bottleneck": 7308,
      "batteries": 7309,
      "evaluating": 7310,
      "fountains": 7311,
      "packaging": 7312,
      "exhibitions": 7313,
      "nebula": 7314,
      "sharp": 7315,
      "intensified": 7316,
      "grassroots": 7317,
      "curtains": 7318,
      "delocalized": 7319,
      "metamorphism": 7320,
      "extinctions": 7321,
      "Chlorophyll": 7322,
      "believed": 7323,
      "Transportation": 7324,
      "Avatar": 7325,
      "Atoms": 7326,
      "CSS": 7327,
      "Ernest": 7328,
      "Electric": 7329,
      "Finally": 7330,
      "Metallic": 7331,
      "bounce": 7332,
      "sonar": 7333,
      "provenance": 7334,
      "cerebell": 7335,
      "reservoir": 7336,
      "consolidation": 7337,
      "exposing": 7338,
      "adversity": 7339,
      "indulging": 7340,
      "prevailing": 7341,
      "groceries": 7342,
      "buyer": 7343,
      "expenditures": 7344,
      "refreshed": 7345,
      "fragments": 7346,
      "1915": 7347,
      "dominant": 7348,
      "Likewise": 7349,
      "weakened": 7350,
      "Oxidation": 7351,
      "Predictive": 7352,
      "Recent": 7353,
      "aqueous": 7354,
      "dolphins": 7355,
      "laptop": 7356,
      "nurturing": 7357,
      "ronutrients": 7358,
      "square": 7359,
      "thrive": 7360,
      "entrepreneurial": 7361,
      "deoxyribonucleic": 7362,
      "stratosphere": 7363,
      "volunte": 7364,
      "odorless": 7365,
      "comparative": 7366,
      "hierarch": 7367,
      "interoperability": 7368,
      "English": 7369,
      "paleontology": 7370,
      "Balancing": 7371,
      "Beneficial": 7372,
      "Doppler": 7373,
      "EVs": 7374,
      "Effective": 7375,
      "Erosion": 7376,
      "Elements": 7377,
      "Fermentation": 7378,
      "Gibbs": 7379,
      "HTML": 7380,
      "Maurice": 7381,
      "PTSD": 7382,
      "Positive": 7383,
      "Please": 7384,
      "Personal": 7385,
      "Pangaea": 7386,
      "Rutherford": 7387,
      "Together": 7388,
      "Various": 7389,
      "cardboard": 7390,
      "fatty": 7391,
      "gourmet": 7392,
      "hectic": 7393,
      "heterogeneous": 7394,
      "jokes": 7395,
      "licensed": 7396,
      "niches": 7397,
      "pituitary": 7398,
      "sweet": 7399,
      "resume": 7400,
      "resumes": 7401,
      "restrictions": 7402,
      "enthusiasts": 7403,
      "outings": 7404,
      "ichiometry": 7405,
      "artistic": 7406,
      "eclipse": 7407,
      "traumatic": 7408,
      "unintended": 7409,
      "undifferentiated": 7410,
      "appointments": 7411,
      "dipole": 7412,
      "exposure": 7413,
      "mobilization": 7414,
      "mosaic": 7415,
      "spindle": 7416,
      "impaired": 7417,
      "disseminated": 7418,
      "commensalism": 7419,
      "romorphic": 7420,
      "maestros": 7421,
      "intermediaries": 7422,
      "premises": 7423,
      "deciphering": 7424,
      "corruption": 7425,
      "schizophrenia": 7426,
      "Challenges": 7427,
      "cytoskeleton": 7428,
      "thylakoid": 7429,
      "cerebellum": 7430,
      "%.": 7431,
      "+)": 7432,
      "10": 7433,
      "53": 7434,
      "Af": 7435,
      "Alex": 7436,
      "Bel": 7437,
      "Bose": 7438,
      "Brain": 7439,
      "CT": 7440,
      "Cell": 7441,
      "Cont": 7442,
      "Dor": 7443,
      "Dou": 7444,
      "Dys": 7445,
      "Down": 7446,
      "Dif": 7447,
      "Dev": 7448,
      "Dig": 7449,
      "El": 7450,
      "Econ": 7451,
      "FS": 7452,
      "Fa": 7453,
      "Fle": 7454,
      "Factors": 7455,
      "GI": 7456,
      "Ground": 7457,
      "H3": 7458,
      "Hun": 7459,
      "Kr": 7460,
      "Key": 7461,
      "LH": 7462,
      "Lema": 7463,
      "Mag": 7464,
      "MEG": 7465,
      "Nic": 7466,
      "Nep": 7467,
      "Nanom": 7468,
      "NH3": 7469,
      "O3": 7470,
      "Our": 7471,
      "Other": 7472,
      "Ops": 7473,
      "Pre": 7474,
      "Pione": 7475,
      "RN": 7476,
      "Rn": 7477,
      "Rib": 7478,
      "Sing": 7479,
      "Sto": 7480,
      "Show": 7481,
      "Soil": 7482,
      "Using": 7483,
      "Val": 7484,
      "Vol": 7485,
      "Xe": 7486,
      "Your": 7487,
      "athe": 7488,
      "ake": 7489,
      "adig": 7490,
      "avor": 7491,
      "astronom": 7492,
      "aiding": 7493,
      "arous": 7494,
      "bent": 7495,
      "bow": 7496,
      "baking": 7497,
      "cof": 7498,
      "drought": 7499,
      "dotes": 7500,
      "dorman": 7501,
      "dwelling": 7502,
      "etic": 7503,
      "eze": 7504,
      "fet": 7505,
      "fab": 7506,
      "ffy": 7507,
      "fted": 7508,
      "fats": 7509,
      "flies": 7510,
      "fficient": 7511,
      "gon": 7512,
      "gments": 7513,
      "hr": 7514,
      "hes": 7515,
      "hood": 7516,
      "hone": 7517,
      "hroom": 7518,
      "ias": 7519,
      "ios": 7520,
      "junc": 7521,
      "kin": 7522,
      "kis": 7523,
      "kry": 7524,
      "karst": 7525,
      "lact": 7526,
      "leng": 7527,
      "lling": 7528,
      "loy": 7529,
      "lactic": 7530,
      "mc": 7531,
      "mou": 7532,
      "merg": 7533,
      "mming": 7534,
      "matory": 7535,
      "ng": 7536,
      "nity": 7537,
      "nose": 7538,
      "nia": 7539,
      "nastic": 7540,
      "ode": 7541,
      "oys": 7542,
      "oids": 7543,
      "pat": 7544,
      "pas": 7545,
      "piz": 7546,
      "psy": 7547,
      "pha": 7548,
      "pace": 7549,
      "pite": 7550,
      "pens": 7551,
      "pitch": 7552,
      "rand": 7553,
      "ronic": 7554,
      "sand": 7555,
      "sac": 7556,
      "sex": 7557,
      "scul": 7558,
      "site": 7559,
      "saw": 7560,
      "swee": 7561,
      "sounds": 7562,
      "salsa": 7563,
      "tent": 7564,
      "tsu": 7565,
      "tage": 7566,
      "test": 7567,
      "tactile": 7568,
      "uto": 7569,
      "ude": 7570,
      "uate": 7571,
      "utive": 7572,
      "vature": 7573,
      "wer": 7574,
      "winter": 7575,
      "wiel": 7576,
      "xen": 7577,
      "yp": 7578,
      "ygen": 7579,
      "za": 7580,
      "zz": 7581,
      "zene": 7582,
      "zoning": 7583,
      "ître": 7584,
      "inin": 7585,
      "inking": 7586,
      "indis": 7587,
      "intim": 7588,
      "inizing": 7589,
      "infil": 7590,
      "invisible": 7591,
      "incoming": 7592,
      "infinite": 7593,
      "indistinguish": 7594,
      "inhalation": 7595,
      "intracellular": 7596,
      "inactivated": 7597,
      "ank": 7598,
      "anec": 7599,
      "anter": 7600,
      "anting": 7601,
      "anine": 7602,
      "anial": 7603,
      "anions": 7604,
      "anthropologists": 7605,
      "onch": 7606,
      "onance": 7607,
      "onoun": 7608,
      "ondense": 7609,
      "rever": 7610,
      "reds": 7611,
      "remin": 7612,
      "remove": 7613,
      "reput": 7614,
      "reacting": 7615,
      "rearrangement": 7616,
      "remediation": 7617,
      "reignite": 7618,
      "thus": 7619,
      "thick": 7620,
      "thode": 7621,
      "ench": 7622,
      "entives": 7623,
      "enrich": 7624,
      "esome": 7625,
      "ingness": 7626,
      "orate": 7627,
      "aler": 7628,
      "alization": 7629,
      "alpha": 7630,
      "attem": 7631,
      "roof": 7632,
      "thed": 7633,
      "stating": 7634,
      "stances": 7635,
      "stero": 7636,
      "elin": 7637,
      "eling": 7638,
      "eluc": 7639,
      "ellec": 7640,
      "tokines": 7641,
      "left": 7642,
      "arm": 7643,
      "arks": 7644,
      "arma": 7645,
      "aracts": 7646,
      "argon": 7647,
      "actual": 7648,
      "itrop": 7649,
      "itches": 7650,
      "ittle": 7651,
      "prospec": 7652,
      "probes": 7653,
      "prokaryotic": 7654,
      "proficient": 7655,
      "omists": 7656,
      "ometers": 7657,
      "ented": 7658,
      "olum": 7659,
      "lia": 7660,
      "liqui": 7661,
      "devi": 7662,
      "deta": 7663,
      "deposition": 7664,
      "chess": 7665,
      "chew": 7666,
      "sures": 7667,
      "suits": 7668,
      "suasive": 7669,
      "sufficient": 7670,
      "forgot": 7671,
      "empowered": 7672,
      "emedicine": 7673,
      "viol": 7674,
      "vibe": 7675,
      "vibr": 7676,
      "truc": 7677,
      "trades": 7678,
      "plest": 7679,
      "Whys": 7680,
      "units": 7681,
      "uninspired": 7682,
      "unemployment": 7683,
      "eted": 7684,
      "conclu": 7685,
      "heights": 7686,
      "ables": 7687,
      "above": 7688,
      "ays": 7689,
      "diam": 7690,
      "dimming": 7691,
      "ride": 7692,
      "coma": 7693,
      "ulus": 7694,
      "ulates": 7695,
      "ulele": 7696,
      "exha": 7697,
      "excell": 7698,
      "exists": 7699,
      "exhalation": 7700,
      "urns": 7701,
      "illed": 7702,
      "atever": 7703,
      "metric": 7704,
      "uck": 7705,
      "ogens": 7706,
      "aming": 7707,
      "amput": 7708,
      "ado": 7709,
      "admini": 7710,
      "spare": 7711,
      "spid": 7712,
      "spill": 7713,
      "impair": 7714,
      "implant": 7715,
      "quir": 7716,
      "quite": 7717,
      "quarks": 7718,
      "verages": 7719,
      "verification": 7720,
      "iris": 7721,
      "iration": 7722,
      "irations": 7723,
      "terr": 7724,
      "terrestrial": 7725,
      "terflies": 7726,
      "genres": 7727,
      "osing": 7728,
      "osaur": 7729,
      "otro": 7730,
      "otechn": 7731,
      "beer": 7732,
      "beach": 7733,
      "began": 7734,
      "neon": 7735,
      "izures": 7736,
      "tug": 7737,
      "tears": 7738,
      "doors": 7739,
      "fever": 7740,
      "fewer": 7741,
      "persion": 7742,
      "perfect": 7743,
      "persuasive": 7744,
      "why": 7745,
      "whatever": 7746,
      "angered": 7747,
      "strative": 7748,
      "tivation": 7749,
      "echoes": 7750,
      "worthin": 7751,
      "clust": 7752,
      "clock": 7753,
      "essay": 7754,
      "essentials": 7755,
      "manif": 7756,
      "idating": 7757,
      "tington": 7758,
      "dispos": 7759,
      "disgu": 7760,
      "disput": 7761,
      "dispersion": 7762,
      "induce": 7763,
      "ached": 7764,
      "workflows": 7765,
      "volta": 7766,
      "voltage": 7767,
      "entities": 7768,
      "wearing": 7769,
      "butterflies": 7770,
      "compaction": 7771,
      "complete": 7772,
      "comprises": 7773,
      "erging": 7774,
      "vesting": 7775,
      "hael": 7776,
      "endangered": 7777,
      "alloids": 7778,
      "allotro": 7779,
      "oversight": 7780,
      "energies": 7781,
      "energetic": 7782,
      "bronch": 7783,
      "ectroscopy": 7784,
      "clubs": 7785,
      "phish": 7786,
      "phones": 7787,
      "included": 7788,
      "geo": 7789,
      "cip": 7790,
      "solace": 7791,
      "developers": 7792,
      "hift": 7793,
      "blast": 7794,
      "blank": 7795,
      "ageous": 7796,
      "shad": 7797,
      "shell": 7798,
      "shore": 7799,
      "explicit": 7800,
      "cytos": 7801,
      "transcr": 7802,
      "interm": 7803,
      "interferen": 7804,
      "interphase": 7805,
      "interviews": 7806,
      "interdimensional": 7807,
      "prices": 7808,
      "pronoun": 7809,
      "disco": 7810,
      "paved": 7811,
      "aterials": 7812,
      "flakes": 7813,
      "intense": 7814,
      "intellec": 7815,
      "ilepsy": 7816,
      "selective": 7817,
      "regain": 7818,
      "regarding": 7819,
      "relatives": 7820,
      "deserts": 7821,
      "destruc": 7822,
      "bipolar": 7823,
      "planner": 7824,
      "planners": 7825,
      "paradig": 7826,
      "uplift": 7827,
      "grand": 7828,
      "grace": 7829,
      "granting": 7830,
      "eye": 7831,
      "chemists": 7832,
      "recommended": 7833,
      "poor": 7834,
      "nothing": 7835,
      "basins": 7836,
      "presynaptic": 7837,
      "pressures": 7838,
      "potentials": 7839,
      "ified": 7840,
      "lock": 7841,
      "locations": 7842,
      "locks": 7843,
      "decondense": 7844,
      "synthetic": 7845,
      "surger": 7846,
      "surprise": 7847,
      "tualized": 7848,
      "breeze": 7849,
      "guanine": 7850,
      "fires": 7851,
      "fight": 7852,
      "fibers": 7853,
      "figu": 7854,
      "firef": 7855,
      "Ther": 7856,
      "drivers": 7857,
      "informational": 7858,
      "coeffici": 7859,
      "leads": 7860,
      "leaders": 7861,
      "setup": 7862,
      "visit": 7863,
      "orient": 7864,
      "stands": 7865,
      "standing": 7866,
      "neuromorphic": 7867,
      "curves": 7868,
      "curvature": 7869,
      "player": 7870,
      "improvements": 7871,
      "dude": 7872,
      "backend": 7873,
      "becomes": 7874,
      "marsh": 7875,
      "immers": 7876,
      "deline": 7877,
      "delight": 7878,
      "responding": 7879,
      "aste": 7880,
      "personalize": 7881,
      "veness": 7882,
      "rental": 7883,
      "transpiration": 7884,
      "epic": 7885,
      "epist": 7886,
      "epilepsy": 7887,
      "axons": 7888,
      "metalloids": 7889,
      "distances": 7890,
      "positively": 7891,
      "captured": 7892,
      "identified": 7893,
      "center": 7894,
      "limits": 7895,
      "limiting": 7896,
      "subset": 7897,
      "subduc": 7898,
      "awesome": 7899,
      "guides": 7900,
      "expense": 7901,
      "sulin": 7902,
      "inescent": 7903,
      "synthesizes": 7904,
      "osynthesis": 7905,
      "collaborating": 7906,
      "gradi": 7907,
      "paths": 7908,
      "ularity": 7909,
      "solutes": 7910,
      "smell": 7911,
      "smile": 7912,
      "ggle": 7913,
      "charity": 7914,
      "microscopy": 7915,
      "microscopic": 7916,
      "copy": 7917,
      "designer": 7918,
      "ruins": 7919,
      "superior": 7920,
      "thereby": 7921,
      "adapting": 7922,
      "balancing": 7923,
      "optimistic": 7924,
      "caves": 7925,
      "cathode": 7926,
      "inflation": 7927,
      "approachable": 7928,
      "Isoto": 7929,
      "makeover": 7930,
      "lawn": 7931,
      "ricanes": 7932,
      "mechanical": 7933,
      "neurotechnology": 7934,
      "neurofeedback": 7935,
      "prints": 7936,
      "Incre": 7937,
      "Insulin": 7938,
      "restaur": 7939,
      "drops": 7940,
      "mutag": 7941,
      "transmitting": 7942,
      "employs": 7943,
      "connects": 7944,
      "magne": 7945,
      "magnit": 7946,
      "neurulation": 7947,
      "extent": 7948,
      "extended": 7949,
      "builders": 7950,
      "mushroom": 7951,
      "soluble": 7952,
      "solubility": 7953,
      "biosphere": 7954,
      "biodegrad": 7955,
      "gravitrop": 7956,
      "motivate": 7957,
      "smallest": 7958,
      "consistency": 7959,
      "sequential": 7960,
      "pipe": 7961,
      "piece": 7962,
      "exert": 7963,
      "Negative": 7964,
      "bitter": 7965,
      "cue": 7966,
      "cube": 7967,
      "economists": 7968,
      "benzene": 7969,
      "donates": 7970,
      "protects": 7971,
      "exercising": 7972,
      "lowers": 7973,
      "namis": 7974,
      "concerts": 7975,
      "minimum": 7976,
      "sils": 7977,
      "silenc": 7978,
      "proposing": 7979,
      "assessments": 7980,
      "depth": 7981,
      "depths": 7982,
      "ranging": 7983,
      "tiality": 7984,
      "Expressing": 7985,
      "avoid": 7986,
      "frac": 7987,
      "hydrosphere": 7988,
      "hydrothermal": 7989,
      "Geograp": 7990,
      "fossili": 7991,
      "singularity": 7992,
      "correl": 7993,
      "accessed": 7994,
      "scientist": 7995,
      "Anything": 7996,
      "Anthropologists": 7997,
      "cataracts": 7998,
      "therapists": 7999,
      "replicating": 8000,
      "replicated": 8001,
      "replicates": 8002,
      "archae": 8003,
      "archaea": 8004,
      "ribos": 8005,
      "nervousness": 8006,
      "equivalence": 8007,
      "1928": 8008,
      "1953": 8009,
      "wasting": 8010,
      "acidic": 8011,
      "acidity": 8012,
      "fixed": 8013,
      "Prokaryotic": 8014,
      "broaden": 8015,
      "willingness": 8016,
      "static": 8017,
      "circum": 8018,
      "neutron": 8019,
      "catalyzes": 8020,
      "putting": 8021,
      "medication": 8022,
      "traveling": 8023,
      "Comets": 8024,
      "Combustion": 8025,
      "removing": 8026,
      "removal": 8027,
      "attentively": 8028,
      "private": 8029,
      "crafting": 8030,
      "farmers": 8031,
      "simplest": 8032,
      "clastic": 8033,
      "halogens": 8034,
      "conceptualized": 8035,
      "describing": 8036,
      "suggested": 8037,
      "Spectroscopy": 8038,
      "trachea": 8039,
      "shoppers": 8040,
      "Chatbots": 8041,
      "Chronic": 8042,
      "nonverbal": 8043,
      "belt": 8044,
      "hosp": 8045,
      "excels": 8046,
      "perceptual": 8047,
      "mutualism": 8048,
      "pton": 8049,
      "studi": 8050,
      "mediated": 8051,
      "tests": 8052,
      "incident": 8053,
      "incentives": 8054,
      "separating": 8055,
      "logs": 8056,
      "hominin": 8057,
      "idification": 8058,
      "passages": 8059,
      "aspirations": 8060,
      "iteration": 8061,
      "iterative": 8062,
      "Plan": 8063,
      "Pluto": 8064,
      "bedtime": 8065,
      "fami": 8066,
      "smartphones": 8067,
      "headset": 8068,
      "component": 8069,
      "sleeping": 8070,
      "modulation": 8071,
      "modulating": 8072,
      "explosion": 8073,
      "answers": 8074,
      "tutors": 8075,
      "philosopher": 8076,
      "hardness": 8077,
      "antibiotic": 8078,
      "accelerating": 8079,
      "accelerated": 8080,
      "cuts": 8081,
      "torn": 8082,
      "anomaly": 8083,
      "seafloor": 8084,
      "observer": 8085,
      "seriously": 8086,
      "difficul": 8087,
      "crosses": 8088,
      "domain": 8089,
      "raindrops": 8090,
      "instead": 8091,
      "credit": 8092,
      "civil": 8093,
      "authorities": 8094,
      "collect": 8095,
      "collective": 8096,
      "Exploring": 8097,
      "demonstrated": 8098,
      "nanoparticles": 8099,
      "swim": 8100,
      "tongue": 8101,
      "arranged": 8102,
      "choosing": 8103,
      "sociologist": 8104,
      "documentation": 8105,
      "seismicity": 8106,
      "darkness": 8107,
      "telemedicine": 8108,
      "returns": 8109,
      "channel": 8110,
      "symbiotic": 8111,
      "urbanization": 8112,
      "Techniques": 8113,
      "pulses": 8114,
      "isotopic": 8115,
      "demographic": 8116,
      "unicor": 8117,
      "executive": 8118,
      "colony": 8119,
      "colonies": 8120,
      "colorful": 8121,
      "spectral": 8122,
      "decompress": 8123,
      "authority": 8124,
      "humor": 8125,
      "juggle": 8126,
      "defends": 8127,
      "translating": 8128,
      "translators": 8129,
      "fantastical": 8130,
      "equalize": 8131,
      "scanning": 8132,
      "adenine": 8133,
      "seems": 8134,
      "committed": 8135,
      "immutability": 8136,
      "Chemists": 8137,
      "Cooking": 8138,
      "Emerging": 8139,
      "Reinforcement": 8140,
      "Supporting": 8141,
      "aims": 8142,
      "shift": 8143,
      "snowflakes": 8144,
      "request": 8145,
      "styles": 8146,
      "stylists": 8147,
      "legends": 8148,
      "propag": 8149,
      "whisper": 8150,
      "whispers": 8151,
      "introduced": 8152,
      "slopes": 8153,
      "robot": 8154,
      "eternal": 8155,
      "indicate": 8156,
      "combinations": 8157,
      "ADHD": 8158,
      "easily": 8159,
      "lunches": 8160,
      "salt": 8161,
      "sales": 8162,
      "utilizes": 8163,
      "utilization": 8164,
      "reaching": 8165,
      "livestoc": 8166,
      "adventures": 8167,
      "Resonance": 8168,
      "bird": 8169,
      "falls": 8170,
      "falling": 8171,
      "housing": 8172,
      "literature": 8173,
      "papers": 8174,
      "fluffy": 8175,
      "skateboarding": 8176,
      "currencies": 8177,
      "gamete": 8178,
      "gametogenesis": 8179,
      "trouble": 8180,
      "templates": 8181,
      "debate": 8182,
      "abnormalities": 8183,
      "float": 8184,
      "floating": 8185,
      "possibility": 8186,
      "neurodegeneration": 8187,
      "nucleotide": 8188,
      "electroly": 8189,
      "nourishment": 8190,
      "Transition": 8191,
      "somatic": 8192,
      "texts": 8193,
      "retailers": 8194,
      "discriminatory": 8195,
      "inflammatory": 8196,
      "audits": 8197,
      "fingerprinting": 8198,
      "merma": 8199,
      "voice": 8200,
      "condensate": 8201,
      "segments": 8202,
      "induction": 8203,
      "weakness": 8204,
      "contexts": 8205,
      "contextual": 8206,
      "footprint": 8207,
      "mirror": 8208,
      "Oxygen": 8209,
      "infected": 8210,
      "artist": 8211,
      "extending": 8212,
      "ratios": 8213,
      "acknowledge": 8214,
      "limitations": 8215,
      "oxidizes": 8216,
      "advantageous": 8217,
      "grievance": 8218,
      "counterfeit": 8219,
      "manufacturers": 8220,
      "cingulate": 8221,
      "sheets": 8222,
      "acetylation": 8223,
      "fortun": 8224,
      "spectroscopy": 8225,
      "permeate": 8226,
      "parasitism": 8227,
      "experiencing": 8228,
      "decorations": 8229,
      "hyperactivity": 8230,
      "affordable": 8231,
      "valley": 8232,
      "phototropism": 8233,
      "photovolta": 8234,
      "prosthetic": 8235,
      "nitrogenous": 8236,
      "Feedback": 8237,
      "Solar": 8238,
      "Solids": 8239,
      "babies": 8240,
      "battery": 8241,
      "fountain": 8242,
      "pushed": 8243,
      "tilt": 8244,
      "exhibit": 8245,
      "nebulae": 8246,
      "strict": 8247,
      "sharpen": 8248,
      "intentions": 8249,
      "grasslands": 8250,
      "delocalization": 8251,
      "metamorphic": 8252,
      "Chloroplasts": 8253,
      "believe": 8254,
      "Activation": 8255,
      "Cybersecurity": 8256,
      "Cytokines": 8257,
      "Micro": 8258,
      "Michael": 8259,
      "Redox": 8260,
      "kilometers": 8261,
      "narrow": 8262,
      "witness": 8263,
      "woodworking": 8264,
      "revealing": 8265,
      "estimated": 8266,
      "rotates": 8267,
      "streak": 8268,
      "advisable": 8269,
      "advisors": 8270,
      "geographic": 8271,
      "geographers": 8272,
      "observational": 8273,
      "duplication": 8274,
      "duplicated": 8275,
      "responsiveness": 8276,
      "encountering": 8277,
      "magnifies": 8278,
      "partnerships": 8279,
      "available": 8280,
      "availability": 8281,
      "Glaciers": 8282,
      "hurricanes": 8283,
      "jumping": 8284,
      "luteinizing": 8285,
      "pineap": 8286,
      "radon": 8287,
      "ukulele": 8288,
      "stabili": 8289,
      "deficit": 8290,
      "terraform": 8291,
      "perceive": 8292,
      "predispositions": 8293,
      "prevention": 8294,
      "tastes": 8295,
      "capacity": 8296,
      "elevated": 8297,
      "twinkling": 8298,
      "Georges": 8299,
      "graphics": 8300,
      "follicle": 8301,
      "utilize": 8302,
      "vacuum": 8303,
      "retrieval": 8304,
      "rehearsing": 8305,
      "Bonjour": 8306,
      "Fossils": 8307,
      "aquifers": 8308,
      "dinosaur": 8309,
      "ethics": 8310,
      "judgment": 8311,
      "kickstart": 8312,
      "lasting": 8313,
      "pyro": 8314,
      "parietal": 8315,
      "sticky": 8316,
      "scratch": 8317,
      "tourism": 8318,
      "vocal": 8319,
      "wireless": 8320,
      "wisely": 8321,
      "wildlife": 8322,
      "insertion": 8323,
      "inspection": 8324,
      "thymine": 8325,
      "rophic": 8326,
      "leptons": 8327,
      "advertis": 8328,
      "sprawl": 8329,
      "impartiality": 8330,
      "permanently": 8331,
      "dissolved": 8332,
      "phagocy": 8333,
      "geysers": 8334,
      "blessings": 8335,
      "contaminants": 8336,
      "decrease": 8337,
      "earliest": 8338,
      "coastal": 8339,
      "hydrological": 8340,
      "globe": 8341,
      "harmony": 8342,
      "phenotypic": 8343,
      "happenings": 8344,
      "deflected": 8345,
      "volunteering": 8346,
      "After": 8347,
      "Alexander": 8348,
      "Dorado": 8349,
      "Double": 8350,
      "DevOps": 8351,
      "Digital": 8352,
      "Economists": 8353,
      "FSH": 8354,
      "Fleming": 8355,
      "GIS": 8356,
      "Groundwater": 8357,
      "Huntington": 8358,
      "Lemaître": 8359,
      "Nicol": 8360,
      "Neptune": 8361,
      "Nanomaterials": 8362,
      "Pioneer": 8363,
      "Ribosomes": 8364,
      "Single": 8365,
      "Valence": 8366,
      "Volcan": 8367,
      "arousal": 8368,
      "dormant": 8369,
      "fetch": 8370,
      "kisses": 8371,
      "krypton": 8372,
      "lactation": 8373,
      "length": 8374,
      "loyal": 8375,
      "mouth": 8376,
      "pizza": 8377,
      "pensable": 8378,
      "random": 8379,
      "sculp": 8380,
      "sweeps": 8381,
      "tsunamis": 8382,
      "wield": 8383,
      "xenon": 8384,
      "indispensable": 8385,
      "indistinguishable": 8386,
      "anecdotes": 8387,
      "reversible": 8388,
      "redshift": 8389,
      "reminding": 8390,
      "reputable": 8391,
      "enchant": 8392,
      "steroids": 8393,
      "elucidate": 8394,
      "oluminescent": 8395,
      "liquids": 8396,
      "deviations": 8397,
      "detailed": 8398,
      "forgotten": 8399,
      "excellence": 8400,
      "amputees": 8401,
      "administrative": 8402,
      "implantation": 8403,
      "worthiness": 8404,
      "manifest": 8405,
      "disposal": 8406,
      "disputes": 8407,
      "bronchi": 8408,
      "phishing": 8409,
      "cytosine": 8410,
      "transcranial": 8411,
      "interference": 8412,
      "pronounced": 8413,
      "destruction": 8414,
      "paradigm": 8415,
      "surgery": 8416,
      "fireflies": 8417,
      "coefficients": 8418,
      "epistasis": 8419,
      "subduction": 8420,
      "Isotopes": 8421,
      "restaurants": 8422,
      "biodegradable": 8423,
      "gravitropism": 8424,
      "Geographers": 8425,
      "archaeology": 8426,
      "circumstances": 8427,
      "livestock": 8428,
      "dinosaurs": 8429,
      "!'": 8430,
      "12": 8431,
      "168": 8432,
      "46": 8433,
      "Aust": 8434,
      "Ask": 8435,
      "ADP": 8436,
      "Asteroids": 8437,
      "BF": 8438,
      "BI": 8439,
      "BS": 8440,
      "Bl": 8441,
      "Br": 8442,
      "Bey": 8443,
      "Bond": 8444,
      "C6": 8445,
      "CH": 8446,
      "Cop": 8447,
      "Count": 8448,
      "Cells": 8449,
      "DI": 8450,
      "Di": 8451,
      "Dal": 8452,
      "Did": 8453,
      "Dra": 8454,
      "Dude": 8455,
      "DBS": 8456,
      "Ed": 8457,
      "Eu": 8458,
      "Est": 8459,
      "Ech": 8460,
      "Emo": 8461,
      "Equ": 8462,
      "Eating": 8463,
      "Equi": 8464,
      "Educ": 8465,
      "Emotion": 8466,
      "EHR": 8467,
      "Fi": 8468,
      "Fra": 8469,
      "French": 8470,
      "Gam": 8471,
      "Gastr": 8472,
      "Groo": 8473,
      "German": 8474,
      "Gustatory": 8475,
      "Hen": 8476,
      "Hel": 8477,
      "Hot": 8478,
      "Have": 8479,
      "Herman": 8480,
      "IP": 8481,
      "Id": 8482,
      "Its": 8483,
      "INs": 8484,
      "Jo": 8485,
      "Jan": 8486,
      "Jedi": 8487,
      "KD": 8488,
      "Kui": 8489,
      "Karst": 8490,
      "Karma": 8491,
      "La": 8492,
      "Lé": 8493,
      "Lon": 8494,
      "Lys": 8495,
      "Lore": 8496,
      "Long": 8497,
      "Lee": 8498,
      "MR": 8499,
      "MS": 8500,
      "Mer": 8501,
      "Mul": 8502,
      "Mother": 8503,
      "M68": 8504,
      "Mathe": 8505,
      "Ni": 8506,
      "No": 8507,
      "Non": 8508,
      "Nor": 8509,
      "Nam": 8510,
      "Nice": 8511,
      "Nutri": 8512,
      "Nature": 8513,
      "Navi": 8514,
      "Ol": 8515,
      "Or": 8516,
      "Oort": 8517,
      "Pu": 8518,
      "Per": 8519,
      "Pain": 8520,
      "Proc": 8521,
      "Phob": 8522,
      "Pharm": 8523,
      "Pale": 8524,
      "PINs": 8525,
      "Qual": 8526,
      "QKD": 8527,
      "Ret": 8528,
      "Rech": 8529,
      "Rob": 8530,
      "Rising": 8531,
      "Sl": 8532,
      "Sy": 8533,
      "Sal": 8534,
      "Sat": 8535,
      "Stri": 8536,
      "Spot": 8537,
      "Sym": 8538,
      "Shor": 8539,
      "Sher": 8540,
      "Sedi": 8541,
      "Schr": 8542,
      "Sensory": 8543,
      "SCN": 8544,
      "Sadi": 8545,
      "Tur": 8546,
      "Tra": 8547,
      "Tides": 8548,
      "TMS": 8549,
      "Uran": 8550,
      "Wind": 8551,
      "Want": 8552,
      "Ye": 8553,
      "Zone": 8554,
      "ah": 8555,
      "aments": 8556,
      "atics": 8557,
      "aids": 8558,
      "adily": 8559,
      "averages": 8560,
      "bial": 8561,
      "biting": 8562,
      "bols": 8563,
      "binary": 8564,
      "border": 8565,
      "bake": 8566,
      "cin": 8567,
      "cod": 8568,
      "cure": 8569,
      "cater": 8570,
      "cled": 8571,
      "coded": 8572,
      "ceding": 8573,
      "crow": 8574,
      "calls": 8575,
      "dul": 8576,
      "dur": 8577,
      "dome": 8578,
      "dress": 8579,
      "done": 8580,
      "dfunding": 8581,
      "ethan": 8582,
      "ekends": 8583,
      "eaves": 8584,
      "fan": 8585,
      "fal": 8586,
      "fro": 8587,
      "fell": 8588,
      "fits": 8589,
      "filling": 8590,
      "fading": 8591,
      "gang": 8592,
      "gning": 8593,
      "gge": 8594,
      "greg": 8595,
      "gents": 8596,
      "gest": 8597,
      "glim": 8598,
      "gym": 8599,
      "gustatory": 8600,
      "gyp": 8601,
      "hn": 8602,
      "hs": 8603,
      "hit": 8604,
      "had": 8605,
      "hine": 8606,
      "hill": 8607,
      "hello": 8608,
      "hope": 8609,
      "hitting": 8610,
      "haps": 8611,
      "ium": 8612,
      "ilities": 8613,
      "imos": 8614,
      "igration": 8615,
      "jog": 8616,
      "juring": 8617,
      "jection": 8618,
      "jacking": 8619,
      "kal": 8620,
      "kage": 8621,
      "kite": 8622,
      "lot": 8623,
      "lob": 8624,
      "lase": 8625,
      "lens": 8626,
      "lacks": 8627,
      "lately": 8628,
      "lava": 8629,
      "lanter": 8630,
      "mat": 8631,
      "mow": 8632,
      "mith": 8633,
      "mim": 8634,
      "mid": 8635,
      "mals": 8636,
      "mill": 8637,
      "mud": 8638,
      "muse": 8639,
      "mhol": 8640,
      "macy": 8641,
      "mold": 8642,
      "nas": 8643,
      "nine": 8644,
      "native": 8645,
      "ores": 8646,
      "oad": 8647,
      "pti": 8648,
      "page": 8649,
      "pure": 8650,
      "pill": 8651,
      "pater": 8652,
      "punc": 8653,
      "pped": 8654,
      "praise": 8655,
      "rit": 8656,
      "rul": 8657,
      "rong": 8658,
      "sth": 8659,
      "spro": 8660,
      "sent": 8661,
      "sam": 8662,
      "sha": 8663,
      "schem": 8664,
      "sali": 8665,
      "scope": 8666,
      "sink": 8667,
      "slides": 8668,
      "tz": 8669,
      "tun": 8670,
      "tur": 8671,
      "trough": 8672,
      "tory": 8673,
      "tty": 8674,
      "tapping": 8675,
      "tently": 8676,
      "taps": 8677,
      "trophic": 8678,
      "uence": 8679,
      "usive": 8680,
      "uels": 8681,
      "urous": 8682,
      "vy": 8683,
      "von": 8684,
      "vors": 8685,
      "wo": 8686,
      "wing": 8687,
      "went": 8688,
      "wil": 8689,
      "wering": 8690,
      "wins": 8691,
      "wrang": 8692,
      "wrench": 8693,
      "xter": 8694,
      "ylem": 8695,
      "zen": 8696,
      "öding": 8697,
      "inent": 8698,
      "indi": 8699,
      "inations": 8700,
      "inates": 8701,
      "inars": 8702,
      "invent": 8703,
      "invaluable": 8704,
      "inade": 8705,
      "inception": 8706,
      "inherent": 8707,
      "inquir": 8708,
      "incip": 8709,
      "anations": 8710,
      "anium": 8711,
      "tists": 8712,
      "tiety": 8713,
      "tisensory": 8714,
      "tization": 8715,
      "title": 8716,
      "tized": 8717,
      "onard": 8718,
      "recy": 8719,
      "resur": 8720,
      "revis": 8721,
      "repor": 8722,
      "rebound": 8723,
      "reframe": 8724,
      "retaining": 8725,
      "repul": 8726,
      "rewrite": 8727,
      "retire": 8728,
      "reconstructing": 8729,
      "readily": 8730,
      "thir": 8731,
      "thous": 8732,
      "thropy": 8733,
      "erb": 8734,
      "ertiliz": 8735,
      "erally": 8736,
      "ende": 8737,
      "ensors": 8738,
      "ennia": 8739,
      "estu": 8740,
      "inge": 8741,
      "ords": 8742,
      "orting": 8743,
      "alkal": 8744,
      "andering": 8745,
      "atements": 8746,
      "atulations": 8747,
      "atonin": 8748,
      "robe": 8749,
      "roke": 8750,
      "roman": 8751,
      "ropol": 8752,
      "roviruses": 8753,
      "rophysics": 8754,
      "rounds": 8755,
      "theme": 8756,
      "station": 8757,
      "stol": 8758,
      "stop": 8759,
      "stasis": 8760,
      "stock": 8761,
      "statements": 8762,
      "stroke": 8763,
      "eld": 8764,
      "elination": 8765,
      "elets": 8766,
      "elusive": 8767,
      "tom": 8768,
      "toster": 8769,
      "token": 8770,
      "toderm": 8771,
      "towering": 8772,
      "icity": 8773,
      "icate": 8774,
      "icking": 8775,
      "icians": 8776,
      "iculus": 8777,
      "lets": 8778,
      "lecul": 8779,
      "least": 8780,
      "leuk": 8781,
      "leash": 8782,
      "leave": 8783,
      "ardi": 8784,
      "arts": 8785,
      "arly": 8786,
      "arking": 8787,
      "arage": 8788,
      "arrange": 8789,
      "arging": 8790,
      "armac": 8791,
      "istive": 8792,
      "isost": 8793,
      "isomes": 8794,
      "ask": 8795,
      "asy": 8796,
      "asar": 8797,
      "assi": 8798,
      "acci": 8799,
      "acogen": 8800,
      "acidification": 8801,
      "acerb": 8802,
      "itter": 8803,
      "itating": 8804,
      "itement": 8805,
      "ecstatic": 8806,
      "ectoderm": 8807,
      "probe": 8808,
      "progn": 8809,
      "prometaphase": 8810,
      "probab": 8811,
      "proprio": 8812,
      "projection": 8813,
      "protists": 8814,
      "omics": 8815,
      "omson": 8816,
      "eds": 8817,
      "edit": 8818,
      "edited": 8819,
      "entric": 8820,
      "entered": 8821,
      "entless": 8822,
      "oline": 8823,
      "olarly": 8824,
      "lial": 8825,
      "liment": 8826,
      "liver": 8827,
      "lights": 8828,
      "siren": 8829,
      "sizes": 8830,
      "degre": 8831,
      "degeneration": 8832,
      "degenerative": 8833,
      "dexter": 8834,
      "chat": 8835,
      "chance": 8836,
      "chances": 8837,
      "chats": 8838,
      "champ": 8839,
      "chastic": 8840,
      "supr": 8841,
      "supre": 8842,
      "vey": 8843,
      "vere": 8844,
      "forget": 8845,
      "fortable": 8846,
      "forgetting": 8847,
      "forged": 8848,
      "ceiling": 8849,
      "canthropy": 8850,
      "empower": 8851,
      "ematic": 8852,
      "emorate": 8853,
      "viable": 8854,
      "vill": 8855,
      "trap": 8856,
      "tram": 8857,
      "trapp": 8858,
      "trilli": 8859,
      "tronegativity": 8860,
      "pline": 8861,
      "plotting": 8862,
      "White": 8863,
      "unt": 8864,
      "unknown": 8865,
      "unmotivated": 8866,
      "unfair": 8867,
      "unlimited": 8868,
      "unusu": 8869,
      "until": 8870,
      "unstructured": 8871,
      "unfortun": 8872,
      "unleash": 8873,
      "etes": 8874,
      "eting": 8875,
      "resorts": 8876,
      "rescue": 8877,
      "aines": 8878,
      "conting": 8879,
      "congr": 8880,
      "convolution": 8881,
      "conferences": 8882,
      "conside": 8883,
      "condense": 8884,
      "conserving": 8885,
      "conjuring": 8886,
      "height": 8887,
      "aben": 8888,
      "abuse": 8889,
      "absolute": 8890,
      "abetes": 8891,
      "apy": 8892,
      "apeutic": 8893,
      "applying": 8894,
      "mented": 8895,
      "mentals": 8896,
      "mentary": 8897,
      "mentoring": 8898,
      "die": 8899,
      "dial": 8900,
      "distress": 8901,
      "dibility": 8902,
      "diphosphate": 8903,
      "dilocks": 8904,
      "diabetes": 8905,
      "arest": 8906,
      "agro": 8907,
      "agus": 8908,
      "agion": 8909,
      "agulation": 8910,
      "aggreg": 8911,
      "usage": 8912,
      "rian": 8913,
      "rights": 8914,
      "rigation": 8915,
      "rifting": 8916,
      "opr": 8917,
      "optics": 8918,
      "complications": 8919,
      "comfortable": 8920,
      "ula": 8921,
      "ulated": 8922,
      "ulsive": 8923,
      "exact": 8924,
      "exchanging": 8925,
      "exceed": 8926,
      "extracellular": 8927,
      "expressions": 8928,
      "extracting": 8929,
      "exacerb": 8930,
      "urt": 8931,
      "urine": 8932,
      "uristic": 8933,
      "urring": 8934,
      "uranium": 8935,
      "ils": 8936,
      "uting": 8937,
      "motic": 8938,
      "mosome": 8939,
      "modes": 8940,
      "moist": 8941,
      "motors": 8942,
      "withstand": 8943,
      "withdraw": 8944,
      "meat": 8945,
      "meandering": 8946,
      "ticellular": 8947,
      "ogad": 8948,
      "ami": 8949,
      "amination": 8950,
      "ader": 8951,
      "adises": 8952,
      "spin": 8953,
      "sport": 8954,
      "sports": 8955,
      "sparking": 8956,
      "Howdy": 8957,
      "implic": 8958,
      "imprinting": 8959,
      "impose": 8960,
      "quacy": 8961,
      "quanti": 8962,
      "quotes": 8963,
      "quasar": 8964,
      "versions": 8965,
      "irling": 8966,
      "irrigation": 8967,
      "tery": 8968,
      "omere": 8969,
      "ometrics": 8970,
      "genre": 8971,
      "genies": 8972,
      "genie": 8973,
      "genhous": 8974,
      "genotype": 8975,
      "osons": 8976,
      "osmotic": 8977,
      "otor": 8978,
      "gher": 8979,
      "neous": 8980,
      "neigh": 8981,
      "nearest": 8982,
      "occas": 8983,
      "ocentric": 8984,
      "izations": 8985,
      "door": 8986,
      "fee": 8987,
      "fear": 8988,
[...]
